{"</s>": 14344, "<unk>": 109576, "<|im_end|>": 116684, "<s>": 44466, "</code>": 4, "</table>": 5, "</num>": 6, "</video>": 7, "</audio>": 8, "</image>": 9, "</text>": 10, "<code>": 11, "<table>": 12, "<num>": 13, "<video>": 14, "<audio>": 15, "<image>": 16, "<text>": 17, "\u2581summit": 18, "estand": 19, "\u043a\u043e\u0432\u0443": 20, "abban": 21, "\u2581\u0938\u093e\u0924": 22, "amate": 23, "\u00e1lt\u00e1k": 24, "\u2581\u0437\u0430\u043d\u044f": 25, "\u2581extremad": 26, "si\u00fa": 27, "\u2581Beta": 28, "\u2581ju\u017e": 29, "\u0431\u0430\u0439\u0434\u0436\u0430": 30, "\u2581Sonnen": 31, "bym": 32, "\u2581SD": 33, "\u2581Wroc\u0142awiu": 34, "\u0446\u043a\u043e\u0439": 35, "\u2581Schla": 36, "fitting": 37, "\u2581\u043c\u0430\u0441\u043b\u043e": 38, "\u2581Tests": 39, "\u2581\u0160pan": 40, "\u043a\u0430\u0442\u043e": 41, "\u2581in\u00e9": 42, "\u2581cali": 43, "\u2581m\u00e1sik": 44, "wiam": 45, "zeitig": 46, "\u0101kie": 47, "\u0432\u043a\u0430": 48, "\u2581notes": 49, "\u2581Questa": 50, "repen": 51, "\u2581tytu\u0142em": 52, "isto": 53, "GI": 54, "kreuz": 55, "maal": 56, "uden": 57, "\u2581Nummer": 58, "\u2581champ": 59, "\u2581comunali": 60, "\u2581Doors": 61, "\u092b\u094d\u091f": 62, "\u2581ind\u00fast": 63, "rease": 64, "\u2581katk": 65, "\u2581Portuguesa": 66, "\u03be\u03bf\u03c5\u03bd": 67, "\u4f55\u304b": 68, "\u2581Lew": 69, "\u2581\u03c3\u03b5\u03b9\u03c1\u03ac": 70, "\u90fd\u5e02": 71, "\u2581chose": 72, "\u2581jom": 73, "\u3055\u305b\u305f": 74, "\u2581experienced": 75, "\u2581Sami": 76, "\uc5b4\ub97c": 77, "Three": 78, "ferenz": 79, "\u2581n\u00e4t": 80, "nWij": 81, "\u2581Wikipedia": 82, "nDom": 83, "\u2581Korn": 84, "\u2581Komponist": 85, "\u8d44\u6599": 86, "\u7b26\u53f7": 87, "\u2581\u015f": 88, "\u4ef0": 89, "\u2581\u041d\u0430\u0439\u0431\u0456\u043b\u044c": 90, "\u2581\u0442\u0435\u0445\u043d\u0438\u043a\u0443": 91, "\u0449\u0435\u043d\u043e": 92, "\u2581bajas": 93, "Portugal": 94, "\u2581Ger": 95, "aa": 96, "\u2581Option": 97, "\u82ae": 98, "Bet": 99, "\u2581pel\u00edculas": 100, "\u2581verticale": 101, "\u2581\u043d\u0435\u0440\u0435\u0434": 102, "\u2581velocidade": 103, "\u4fbf\u5229": 104, "\u2581kr\u00f3lem": 105, "\u9189": 106, "\u0432\u0438\u044f\u0442": 107, "\u2581allergic": 108, "kompli": 109, "\u0447\u0435\u043d\u0438\u0445": 110, "\u2581\u0415\u043a\u0430\u0442\u0435\u0440\u0438\u043d": 111, "\u2581riesgos": 112, "\u94c9": 113, "ricos": 114, "\u2581szerep": 115, "\u043f\u043b\u0435\u043d\u0438\u044f": 116, "\u2581f\u00f6re": 117, "\u2581\u0906\u0930": 118, "<0x03>": 119, "\u2581fili": 120, "ece": 121, "czek": 122, "\u2581oscillation": 123, "andenburg": 124, "\u2581\u0445\u0443\u0434\u043e": 125, "\u2581\u0440\u0435\u0433\u0438\u043e\u043d\u0430": 126, "\u2581v\u00f5i": 127, "\u2581spun": 128, "\u2581solo": 129, "bruik": 130, "\u0441\u043c\u043e": 131, "\u2581\u0441\u0442\u0430\u0440\u044b": 132, "\u2581abi": 133, "\u2581neutrino": 134, "\u2581Lic": 135, "\u8107": 136, "\u2581\u0441\u0442\u043e\u044f\u0442": 137, "\u2581\u0434\u0440\u0430": 138, "\u2581espectro": 139, "g\u00fc": 140, "\u2581\u039a\u03b1\u03c1": 141, "\u5140": 142, "\u2581patrim": 143, "\u2581vlasti": 144, "\u2581gob": 145, "\u2581requires": 146, "\u2581\u0161iek": 147, "ffic": 148, "\u2581Choice": 149, "LED": 150, "\u2581filhos": 151, "\u2581m\u00fa": 152, "\u2581expend": 153, "ala": 154, "\u690d\u7269": 155, "\u0648\u062a\u0631": 156, "wia\u0107": 157, "\u2581feared": 158, "\u2581cerc": 159, "\u2581pelig": 160, "\u2581rip": 161, "\u2581\u0430\u043d\u0430\u043b\u0438": 162, "<extra_id_236>": 163, "fahrts": 164, "ubblika": 165, "\u2581posad": 166, "\u2581curse": 167, "cc": 168, "\u0415\u041b": 169, "\u2581gosto": 170, "onym": 171, "Nel": 172, "\u2581na\u0161e": 173, "\u2581\ub3d9\uc548": 174, "ened": 175, "\u2581tij": 176, "\u2581Millionen": 177, "\u2581castellano": 178, "\u2581\u00e9p": 179, "obbl": 180, "\u2581they": 181, "\u2581komandas": 182, "\u2581amplitudes": 183, "\u2581\u043e\u0440\u0433\u0430\u043d\u0456": 184, "entr": 185, "\u2581accepte": 186, "\u2581jud\u00edos": 187, "\u62dd": 188, "\u2581zapach": 189, "\u7684\u5973": 190, "imb": 191, "\u2581derive": 192, "\u0437\u0430\u043b": 193, "\u2581\u0440\u0456\u0432\u043d\u044f": 194, "\u591a\u304f": 195, "alez": 196, "avirus": 197, "\u2581\u0421\u043e": 198, "\u2581\ucef4": 199, "\u2581koled": 200, "Australia": 201, "\u99c6": 202, "textsf": 203, "kampf": 204, "v\u00e1ny": 205, "\u2581Who": 206, "\u6b98": 207, "rikt": 208, "\u2581row": 209, "\u2581zus\u00e4tzlich": 210, "allem": 211, "\u2581apenas": 212, "\u2581\u0441\u0447\u0438\u0442\u0430\u0442\u044c": 213, "\u2581staro\u017cyt": 214, "\u0142at": 215, "\u2581muslim": 216, "\u51fd\u6570": 217, "\u2581podro\u010d": 218, "partner": 219, "alsed": 220, "\u2581nim": 221, "\u2581volcanic": 222, "attivit\u00e0": 223, "etine": 224, "\u2581impres": 225, "\u2581transcend": 226, "\u0441\u0440\u0435": 227, "\u2581montanhas": 228, "\u2581Vincent": 229, "ebi": 230, "\u2581troph": 231, "razia": 232, "\u2581Associa\u00e7\u00e3o": 233, "\u2581\u03c3\u03bf": 234, "\u2581Zachod": 235, "\u2581m\u00f3viles": 236, "arg": 237, "\u22c6": 238, "\u043b\u044a": 239, "\u2581\u0907\u0938\u092e\u0947\u0902": 240, "\ud83d\udc99": 241, "\u2581destacado": 242, "akaan": 243, "r\u00e9g": 244, "ganos": 245, "\u2581mortes": 246, "javi": 247, "\u2581schaffen": 248, "\u2581\u0433\u0434\u0435": 249, "\u043f\u0440\u043e\u0446\u0435": 250, "\u6cc4": 251, "\u6d17": 252, "\u043c\u044f\u0442": 253, "\u2581bepaald": 254, "\u2581wins": 255, "inds": 256, "\u2581\uba40": 257, "\u2581skr": 258, "\u2581tribes": 259, "\u2581\ub370\uc774\ud130": 260, "\u2581L\u00e4ndern": 261, "jeno": 262, "\u2581seg": 263, "\u2581zmian": 264, "\u2581Sieger": 265, "\u2581abbre": 266, "\u2581\u0423\u043d\u0438": 267, "adam": 268, "\u2581\u0219": 269, "\u0631\u0627\u0642\u064a": 270, "\u2581expans\u00e3o": 271, "\u2581procesos": 272, "\u2581allemand": 273, "\u2581\u00e9conomiques": 274, "\u2581\u0447\u0430\u0449\u0435": 275, "\u2581\u0442\u0440\u0435\u043d\u0435\u0440": 276, "\u2581Hrvat": 277, "ativos": 278, "\u7406\u8bba": 279, "\u2581Bj\u00f6r": 280, "\u2581\u043e\u0442\u043b\u0438\u0447\u0430\u0435\u0442\u0441\u044f": 281, "\u2581Tenden": 282, "\u00c9t": 283, "\u2581pre\u00e7o": 284, "\u062f\u0644": 285, "nTa": 286, "\u2581Fleet": 287, "jenta": 288, "\u2581civ": 289, "\u0447\u0430\u0441\u0442\u043b\u0438": 290, "\u2581imagine": 291, "\u2581hera": 292, "\u7cd6": 293, "\u2581etim": 294, "\u2581konsult": 295, "\u2581\u041c\u0443\u0436": 296, "\u2581gestione": 297, "esteld": 298, "joint": 299, "profess": 300, "\u2581popolazione": 301, "\u00fados": 302, "\u2581\u0440\u0430\u0437\u043e\u043c": 303, "ienas": 304, "\u2581Eye": 305, "\u2581Cristina": 306, "owego": 307, "hain": 308, "\u2581irm": 309, "ilika": 310, "sized": 311, "\u5cd9": 312, "\u2581Federazione": 313, "\u2581bislang": 314, "\u2581scri": 315, "Land": 316, "\u2581odsz": 317, "\u570b\u5bb6": 318, "\u2581safe": 319, "ruz": 320, "\u2581d\u00fa": 321, "\u063a\u064a\u0631\u0629": 322, "\uaca9": 323, "\u2581\u03c0\u03c1\u03bf\u03b2\u03bb\u03ae\u03bc\u03b1\u03c4\u03b1": 324, "\u2581dre": 325, "\u2581\u00e7\u0131": 326, "\u2581preparing": 327, "\u2581Zim": 328, "\u2581apresenta\u00e7\u00f5es": 329, "obil": 330, "\u0441\u0442\u0443\u043f\u0438\u043b": 331, "\u2581vilken": 332, "\u2581\u0938\u093f\u0902\u0939": 333, "\u2581psych": 334, "\u2581Mandela": 335, "findung": 336, "\u2581particip": 337, "\u2581cure": 338, "\u2581toden": 339, "aland": 340, "ofer": 341, "\u2581\ube48": 342, "\ubcf4\ub2e4\ub294": 343, "\u2581Consigli": 344, "\u2581cient\u00edfica": 345, "\u6574\u500b": 346, "\u03c4\u03b9\u03ba\u03ac": 347, "BBC": 348, "nL": 349, "\u6840": 350, "\u2581\u03bb\u03b9\u03b3": 351, "asal": 352, "itele": 353, "\u4ea7\u4e1a": 354, "\u017eiama": 355, "\u2581regn": 356, "\u2581tegemist": 357, "\u2581pains": 358, "\u03c1\u03b9\u03c2": 359, "\u2581universidade": 360, "aded": 361, "\u2581ins": 362, "\u2581Po\u0142udniowej": 363, "\u2581\u0441\u043e\u0437\u0434\u0430\u043b": 364, "\u2581\u0437\u0430\u0445\u0438": 365, "Mar": 366, "anterie": 367, "\u0942\u0902": 368, "\u00f8rte": 369, "\u51a0\u519b": 370, "ikern": 371, "\u2581ni\u010d": 372, "\u2581v\u00e4h": 373, "\u2581deeds": 374, "clesiast": 375, "\u2581personlig": 376, "\u2581\u043a\u0430\u0437\u0432\u0430": 377, "ipuol": 378, "\u2581-\\": 379, "\u6d51": 380, "\u2581ecc": 381, "\u2581\u0130zmir": 382, "\u2581concello": 383, "\u2581chimica": 384, "\u2581\u043f\u0440\u043e\u0434\u043e\u043b\u0436\u0430": 385, "iak": 386, "\u2581speeds": 387, "\u2581Edizioni": 388, "\u2581abgele": 389, "\u2581those": 390, "ryka": 391, "ekom": 392, "astal": 393, "j\u0161": 394, "\u0159i": 395, "ichtung": 396, "\u2581\u03ba\u03c5\u03ba\u03bb\u03bf": 397, "\u2581niemieckiego": 398, "embre": 399, "\uc704\ud55c": 400, "bios": 401, "\u2581Hongkong": 402, "\u2581\uac1c\ub150": 403, "\u2581screw": 404, "Ukraine": 405, "\u2581Mats": 406, "\u2581Croix": 407, "\u2581razli\u010ditih": 408, "\u2581Saudita": 409, "\u2581enqu\u00eate": 410, "\u2581newly": 411, "\u2581Bic": 412, "\u2581\u0447\u0435\u0440\u043d\u043e": 413, "<0x4D>": 414, "\u2581geblieben": 415, "\u3042\u307e\u308a": 416, "<0x7C>": 417, "\u2581\u043f\u0435\u0440\u0432\u044b\u0445": 418, "\u2581Wester": 419, "\u2581\u0441\u0435\u0440\u0435\u0434\u0438": 420, "\u010dite": 421, "\u2581strumento": 422, "\u2581Coming": 423, "\u2581jaut": 424, "\u2581\u043e\u0431\u044f\u0437\u0430\u043d": 425, "\u2581vyu\u017e": 426, "\u2581Transformation": 427, "\u2581direttamente": 428, ")[": 429, "\u2581Bianchi": 430, "\u2581Augustin": 431, "\u2581\u043f\u0440\u0430\u0432\u043e\u0441\u043b\u0430\u0432": 432, "\u2581Actualit\u00e9s": 433, "\u2581\u03bc\u03b5\u03c4\u03b1": 434, "isd": 435, "\u2581noord": 436, "\u2581janvier": 437, "\u011fmen": 438, "\u9662": 439, "\u2581\u03b5\u03be\u03b5\u03bb": 440, "df": 441, "any": 442, "kony": 443, "bo": 444, "\u2581schu": 445, "\u2581kvadrat": 446, "\u2581historiens": 447, "\u2581tono": 448, "\u2581vair": 449, "esti\u00f3n": 450, "estel": 451, "\u2581podm": 452, "\u2581\uc788\uc2b5\ub2c8\ub2e4": 453, "\u2581Mand": 454, "\u2581tourn\u00e9e": 455, "\u0c30": 456, "\u6570\u306f": 457, "\u30cf\u30f3": 458, "XL": 459, "\u2581lijnen": 460, "\u2581y\u00fc": 461, "\u2581dispute": 462, "\u2581gener": 463, "\u2581\u0633\u0644\u0633\u0644\u0629": 464, "v\u0105": 465, "\u2581\u0430\u043a\u0442": 466, "\u2581\ud589\uc815": 467, "\u2581F\u00f3rmula": 468, "\u0447\u0451\u0440": 469, "\u2581\u0440\u0430\u0432\u043d\u0438": 470, "baarheid": 471, "\u2581remod": 472, "\u65af\u79d1": 473, "\u5b9e\u884c": 474, "\u03b3\u03c1\u03b1\u03c6\u03af\u03b1": 475, "\u2581equation": 476, "\u7684\u65b0": 477, "\u2581Nisan": 478, "\u0915\u094d\u0937\u093f": 479, "unnen": 480, "\u2581concetto": 481, "\u2581elements": 482, "\u2581p\u00e4evas": 483, "\u0639\u0648\u062f\u064a\u0629": 484, "\u2581koncentr": 485, "\u2581truppe": 486, "ilet": 487, "\u2581Nost": 488, "\u2581slave": 489, "\u2581compreens\u00e3o": 490, "\u660e\u78ba": 491, "\u2581dziesmu": 492, "lieger": 493, "\u2581Witte": 494, "\u2581\u0627\u0644\u062f\u064a\u0645\u0642\u0631\u0627": 495, "\u2581ostalih": 496, "\u2581nascita": 497, "requ": 498, "\u2581Bol\u00edvar": 499, "\u2581wcze\u015bniej": 500, "l\u00e4uf": 501, "\u2581impression": 502, "\u2581Ryt\u0173": 503, "<0x4C>": 504, "rouw": 505, "\u2581cease": 506, "\u2581\u0432\u043b\u0430\u0434\u0438": 507, "\u2581muzie": 508, "\u2581Njema": 509, "\u7535": 510, "\u2581kommentarer": 511, "\u2581dense": 512, "\u2581\u0938\u092e\u094d\u092e": 513, "\u2581empresas": 514, "\u2581n\u00famer": 515, "\u8eab": 516, "\u011fer": 517, "\u6700\u8fd1": 518, "\u2581embarazo": 519, "\u817b": 520, "\u2581Spania": 521, "\u2581insanlar": 522, "\u018f": 523, "otine": 524, "\u2581Nem\u010d": 525, "\u2581seveda": 526, "\u2581coda": 527, "\u2581Grupa": 528, "\u0643": 529, "\u2581constraint": 530, "\u589e\u957f": 531, "\u2581ales": 532, "\u2581Roman": 533, "\u0448\u0438\u0442\u044c": 534, "ystemer": 535, "\u0161kom": 536, "\u2581nachdem": 537, "\u7624": 538, "\u2581secretario": 539, "\u2581Rush": 540, "\u2581\u0441\u0430\u043c\u0438\u043c": 541, "brigen": 542, "CM": 543, "\u2581antigua": 544, "adek": 545, "\u2581\u043f\u043b\u044e\u0441": 546, "\u2581\u0426\u044f": 547, "\u8bf7": 548, "onso": 549, "\u2581Yuan": 550, "\u2581terzo": 551, "\u2581Warn": 552, "overy": 553, "ivel": 554, "\u2581serviu": 555, "\u5fd8": 556, "\u2581rocz": 557, "ivelmente": 558, "$:": 559, "\u2581transparent": 560, "\u2581\uc81c\ud488": 561, "\u2581turnie": 562, "\u2581juridiques": 563, "\u2581\u0432\u043f\u0435\u0440\u0432\u044b\u0435": 564, "\u2581matrice": 565, "\u2581band": 566, "\u2581\u043f\u043e\u0441\u0435\u0442\u0438": 567, "\u2581sprz": 568, "\u2581chang\u00e9": 569, "\u2581offre": 570, "\u2581inf": 571, "\u2581seen": 572, "\u2581Stuttgart": 573, "\u2581fui": 574, "\u2581prowincji": 575, "atorias": 576, "\u2581volante": 577, "verbindungen": 578, "\u2581kaum": 579, "\u2581mist": 580, "present": 581, "\u2581Informa": 582, "\u0432\u043e\u0434\u0438\u0442\u0435\u043b\u044c": 583, "\u2581infant": 584, "\u2581megye": 585, "\u2581spheres": 586, "\u2581animaux": 587, "\u0439\u043a\u043e": 588, "\u2581Morgen": 589, "\u043a\u0443": 590, "}|\\": 591, "\u2581m\u00f6glich": 592, "\u00efsos": 593, "\u2581europ\u00e9ens": 594, "\u2581Kath": 595, "Vir": 596, "\u2581segle": 597, "\u54c8": 598, "\u2581Rocha": 599, "\u2581Ry": 600, "\u2581sodium": 601, "\u2581v\u00fdchod": 602, "This": 603, "\u2581odr\u0119b": 604, "\u2581\u039a\u03cd\u03c0": 605, "\u2581That": 606, "\u2581u\u010d": 607, "\u2581Verenigde": 608, "\u2581\u0440\u0435\u0436\u0438\u043c": 609, "\u2581plo": 610, "iseen": 611, "\u8d3f": 612, "assen": 613, "\u00e2mb": 614, "\u2581Dang": 615, "\u2581\u043f\u043e\u0432\u0435\u0434\u0435\u043d\u0438\u0435": 616, "\u2581erreich": 617, "\u2581Orden": 618, "\u2581pumping": 619, "\u65e0\u8bba": 620, "\u2581garder": 621, "\u2581\u0627\u0644\u0623\u0646": 622, "\u2581gewenste": 623, "\u2581Vilnius": 624, "\u5dba": 625, "\u2581werkzaamheden": 626, "\u8faf": 627, "inado": 628, "\u2581b\u016bdas": 629, "\u2581\u0420\u0435\u0441\u043f\u0443\u0431\u043b\u0438": 630, "\u045c": 631, "\u2581tama\u00f1o": 632, "\u00e4nger": 633, "\u2581Pi\u0119": 634, "\uc9c0\uc640": 635, "\u529e\u7406": 636, "\u043e\u0440": 637, "\u0430\u043a": 638, "\u2581manuscript": 639, "\u2581zem": 640, "\u2581n\u00e1r": 641, "\u016br": 642, "\u2581celebrate": 643, "\u2581\u043f\u0440\u0438\u0448\u043b\u0438": 644, "kten": 645, "atet": 646, "iska": 647, "\u65b9\u304c": 648, "\u2581Nederlanders": 649, "gelijke": 650, "\u2581aankoop": 651, "\u2581f": 652, "\u2581min\u016btes": 653, "\u03bb\u03c9\u03bd": 654, "\u767b\u9646": 655, "\u2581t\u00fch": 656, "riebene": 657, "\u9bad": 658, "\u2581eher": 659, "acije": 660, "\u2581\uc778\ub3c4": 661, "ad\u00e9k": 662, "\u2581Guin": 663, "\u2581geli": 664, "\u2581spelar": 665, "\u2581bloque": 666, "\u2581append": 667, "\u6765\u5230": 668, "\u2581buurt": 669, "\u2581besch": 670, "\u2581alternatyw": 671, "\u2581Mika": 672, "t\u00f6": 673, "\u4e00\u5e36": 674, "osamente": 675, "\u5317\u4eac": 676, "gel": 677, "\u00edli": 678, "\u2581osob\u0105": 679, "\u2581pins": 680, "\u2581plan\u00e9t": 681, "\u2581kost": 682, "\u2581inhalation": 683, "lando": 684, "\u00f6ffnet": 685, "\u2581jau": 686, "\u2581\u043e\u0447\u0435": 687, "\u2581\u0445\u0435": 688, "\u2581\u017eivjeti": 689, "\u2581Geheim": 690, "\u2581dziennie": 691, "\u2581ogs\u00e5": 692, "\u2581Capo": 693, "\u5c01": 694, "\u2581kay": 695, "\u2581AD": 696, "ciendo": 697, "\u0648\u0646\u064a": 698, "\u2581Ola": 699, "impe": 700, "\u2581aumentare": 701, "\u2581aware": 702, "\u2581bisschop": 703, "ometri": 704, "ets": 705, "\u5c91": 706, "\u2581exista": 707, "\u03c0\u03c4\u03c9\u03c3\u03b7": 708, "\u2581afer": 709, "\u03c7\u03b5\u03b9": 710, "\u2581Meister": 711, "\u2581rej": 712, "}^{+": 713, "\u2581\u0153uvre": 714, "\u2581klienta": 715, "\u2581arci": 716, "rolig": 717, "ravam": 718, "\u2581squad": 719, "\u2581Kreis": 720, "\u043a\u0440\u043e": 721, "\u2581zajmuje": 722, "aniem": 723, "\u2581\u0938\u094d\u091f\u0947": 724, "wiaty": 725, "\u2581neurotrans": 726, "\u2581\u041f\u043e\u043d\u044f": 727, "\u2581pietra": 728, "\u2581Fr\u00fchl": 729, "\u2581surov": 730, "\u2581katal": 731, "\u60ac": 732, "\u8ddd\u96e2": 733, "\ub9e4": 734, "\u3092\u306f": 735, "\u5085": 736, "\u2581skont": 737, "\u2581limitada": 738, "uksissa": 739, "\u2581\u0438\u0441\u0442\u043e\u0440\u0438": 740, "\u2581sk": 741, "\u2581Abbiamo": 742, "ekonom": 743, "\u2581\u0430\u0434\u0440\u0435\u0441": 744, "\u2581\u0627\u0644\u0628\u064a": 745, "\u4e09": 746, "\u2581programmat": 747, "\u2581Alfonso": 748, "\u2581my\u00f6t\u00e4": 749, "\u2581achar": 750, "\u2581domy": 751, "\u2581Pr\u00e9s": 752, "ist\u00f3w": 753, "\u2581\u043c\u043e\u0449\u043d\u043e\u0441\u0442\u0438": 754, "isk": 755, "\u2581Leopoldo": 756, "\u4f86": 757, "\u2581defini\u00e7\u00e3o": 758, "kker": 759, "ygens": 760, "\u010di\u0105": 761, "\u2581rout": 762, "\u2581\u0438\u0437\u043e\u0431\u0440\u0435": 763, "\u0445": 764, "utaci\u00f3n": 765, "\u2581persuna": 766, "\u2581positions": 767, "\u2581Hurt": 768, "\u2581terenie": 769, "\u2581\u0432\u0437\u0433\u043b\u044f\u0434": 770, "\u2581b\u00e1s": 771, "\u0105": 772, "\u2581apartamento": 773, "\u2581\u03b5\u03bd\u03b1": 774, "\u2581vrlo": 775, "\u2581\u0440\u0435\u0433\u0438\u043e\u043d": 776, "\u2581Insulin": 777, "itle": 778, "\u4e3b\u6559": 779, "\u2581varas": 780, "\u2581sculpt": 781, "\uce74": 782, "\u0650\u064a": 783, "tym": 784, "\u2581brigade": 785, "\u044f\u0442": 786, "\u2581stoff": 787, "\u2581\u041f\u0443\u0442\u0438\u043d": 788, "otoj\u0173": 789, "\u2581corp": 790, "Manu": 791, "oirs": 792, "\u2581\ub2f5": 793, "\u2581Einaudi": 794, "\u0431\u0432\u0430": 795, "\u2581Ima": 796, "\u2581ruime": 797, "\u043d\u0438\u0446\u0442\u0432\u0430": 798, "\u2581\u0442\u0430\u043a\u043e\u0439": 799, "\u0441\u0456": 800, "\u2581quite": 801, "\u2581\uc788\uc9c0": 802, "\u2581parink\u010di\u0173": 803, "\u2581s\u00e1bado": 804, "\u2581mill": 805, "GEN": 806, "\u2581lutego": 807, "\u2581ipak": 808, "\u2581Beer": 809, "\u2581kuum": 810, "\u010b\u010ba": 811, "\u2581cuyas": 812, "\u2581Individual": 813, "\u2581cult": 814, "kich": 815, "EK": 816, "\u1f7c": 817, "\u2581korting": 818, "\u2581windows": 819, "\u2581gjel": 820, "\u2581aizsardz\u012bbas": 821, "\u2581\u064a\u062a\u062d": 822, "\u0913\u0902": 823, "Luc": 824, "\u2581\u00eenceput": 825, "\u2581konserw": 826, "\u2581\u0641\u0631": 827, "\u2581veikal": 828, "\u2581arbejd": 829, "cl": 830, "\u2581\u03c7\u03c1\u03c5": 831, "\u03c6\u03ad\u03c2": 832, "\u2581faces": 833, "\uad00\ub9ac": 834, "iko": 835, "\u2581Teat": 836, "username": 837, "\u651c": 838, "\u2581\u03bc\u03bf\u03c5\u03c3": 839, "\u2581WhatsApp": 840, "\u2581amerikanische": 841, "\u2581d\u00e1n": 842, "\u2581teine": 843, "\u2581compromise": 844, "\u2581nauc": 845, "\u2581fils": 846, "\u2581wysy\u0142": 847, "\u2581j\u00e4m": 848, "\u2581jod": 849, "\u043d\u044b\u043c\u0438": 850, "\u2581\u0627\u0644\u0630": 851, "actie": 852, "\u4eb0": 853, "\u2581elb": 854, "\u2581Yves": 855, "\u2581\u017d": 856, "\u2581saat": 857, "\u2581venga": 858, "vja": 859, "\u2581vist": 860, "\u2581\u0434\u043e\u043a\u0430\u0437\u0430": 861, "\u2581\u041c\u0430\u0440\u0438\u0438": 862, "\u2581higien": 863, "\u2581hodn\u011b": 864, "\u2581lekkoat": 865, "kohta": 866, "\u2581gwiazdy": 867, "ilno": 868, "\u2581t\u00f5": 869, "\u2581\u03a1": 870, "\u2581historische": 871, "\u2581kalk": 872, "\u00e7uk": 873, "ovisu": 874, "\u2581ra\u011fmen": 875, "\ubb3c\uc774": 876, "\u2581Kant": 877, "\u2581Kr\u00f3l": 878, "\u2581Gates": 879, "SZ": 880, "\u2581Lomb": 881, "ra\u00edonn": 882, "\u2581\u043e\u0444\u043e\u0440\u043c\u043b\u0435\u043d\u0438\u044f": 883, "\u2581\u0420\u0430\u0434\u0438": 884, "ytt\u00f6": 885, "\u2581espanyol": 886, "\u2581Din": 887, "u\u010dili": 888, "\u2581slovenski": 889, "\u0434\u043e\u0432\u0436": 890, "\u2581ulat": 891, "\u2581separat": 892, "\u2581dansk": 893, "\u2581\u03c4\u03b5": 894, "\u2581aggrav": 895, "\u662f\u5728": 896, "ledi": 897, "\u2581Eta": 898, "\u2581\u0434\u0438\u0440\u0435\u043a\u0442\u043e\u0440": 899, "\u2581nagu": 900, "\u2581teren\u00f3w": 901, "\u2581visit": 902, "\u2581copper": 903, "\u2581Kraj": 904, "\u2581conta": 905, "\u2581brano": 906, "\u2581visual": 907, "oczyn": 908, "\ud558\uc774": 909, "\u2581smak": 910, "writers": 911, "orsz\u00e1g": 912, "\u2581Vilar": 913, "\u2581generali": 914, "\u2581\u0440\u0443\u0441\u0441\u043a\u0438\u0435": 915, "\u2581\u0432\u044b\u0448\u0435": 916, "\u1fb6": 917, "\u5c06\u5176": 918, "\u2581\u0441\u0442\u0440\u043e\u0438\u0442\u0435\u043b\u044c\u0441\u0442\u0432\u0435": 919, "\u2581cazul": 920, "\u2581bits": 921, "\u2581conject": 922, "\u2581integra": 923, "\u5e72\u90e8": 924, "\u2581up": 925, "\u2581p\u0142y": 926, "\u30c9": 927, "\u2581strongly": 928, "\u043d\u0435\u043d\u0435": 929, "\u010c": 930, "\u2581retrouve": 931, "\u2581Ping": 932, "\u2581Gy": 933, "Indian": 934, "\u2581\u043d\u0435\u0434\u0435\u043b\u0438": 935, "\u2581patr\u00f3n": 936, "\u2581vijand": 937, "\u2581jest": 938, "\u2581collecting": 939, "\u2581\u03c4\u03c1\u03af\u03b1": 940, "ika": 941, "ilit": 942, "\u2581hierf\u00fcr": 943, "\u76f4\u81f3": 944, "ziu": 945, "\u2581r\u0103zboi": 946, "astes": 947, "\u2581Fabrik": 948, "\u2581\ub3cc": 949, "nic": 950, "ritti": 951, "\u2581continuation": 952, "<extra_id_201>": 953, "\u2581forint": 954, "\u2581youtube": 955, "\uc900": 956, "\u2581verke": 957, "\u2581plum": 958, "\u2581pr\u00f3": 959, "karz": 960, "rente": 961, "\u2581///": 962, "\u2581pud": 963, "\u2581\u03bc\u03ad\u03bb\u03b7": 964, "\u2581Learning": 965, ")$.": 966, "\u0131\u011f\u0131n\u0131": 967, "\u2581\u0433\u043b\u0430": 968, "\u0648\u0631\u064a": 969, "boj": 970, "\u2581r\u00e9duit": 971, "\u2581Nir": 972, "\u2581NA": 973, "\u2581Are": 974, "ppe": 975, "\u2581flash": 976, "\u2581velikosti": 977, "\u2581yhteydess\u00e4": 978, "\u2581upad": 979, "\u53ef\u4ee5": 980, "\u2581Lach": 981, "\u603b\u7edf": 982, "\u2581considerado": 983, "\u2581podstawowe": 984, "ch\u00e1n": 985, "arynx": 986, "\u0432\u0430\u044e\u0449\u0438\u0435": 987, "\u2581\u043e\u0442\u0440\u0438\u0446\u0430": 988, "\u5927\u7ea6": 989, "\u820c": 990, "\u03cc\u03bc\u03b5": 991, "\u2581\u0905\u0928\u094d": 992, "\u2581allura": 993, "\u2581iti": 994, "\u2581\u092e\u093f\u0928": 995, "\uba74\uc5d0": 996, "\ud55c\ub2e4": 997, "\u2581Nov\u00e1": 998, "\u2581Exterior": 999, "\u2581Seimo": 1000, "\u2581\u043f\u0440\u0435\u0434\u044b\u0434\u0443": 1001, "\uacc1": 1002, "\u2581n\u011bm": 1003, "\u2581part": 1004, "\u2581desde": 1005, "\u603b\u4f53": 1006, "\u2581gluten": 1007, "\u2581pubblicazione": 1008, "\u2581verseny": 1009, "\u2581Eller": 1010, "\u2581tarra": 1011, "\u5a49": 1012, "\u2581Andreas": 1013, "\u2581Vest": 1014, "\u2581engra": 1015, "\u56e0\u800c": 1016, "\u2581\u0905\u092e\u0947\u0930\u093f\u0915\u093e": 1017, "\u2581unele": 1018, "\u2581large": 1019, "nosi": 1020, "\u2581evang\u00e9": 1021, "\u2581dru\u0161tvo": 1022, "location": 1023, "\u2581yhteen": 1024, "\u2581\u039a": 1025, "\u2581hivatalos": 1026, "\u2581schw": 1027, "\u2581abnormal": 1028, "\u2581slapen": 1029, "\u7d50\u5a5a": 1030, "\u2581l\u00e9t": 1031, "\u2581Halt": 1032, "illing": 1033, "wissenschaftler": 1034, "\u2581polig": 1035, "\u2581comedy": 1036, "\u2581dur": 1037, "\u2581\u0930\u093e\u0937\u094d\u091f\u094d\u0930\u0940\u092f": 1038, "irn": 1039, "\u2581\u0410\u0431": 1040, "unist": 1041, "\u2581deszcz": 1042, "\u2581pavy": 1043, "\u8fdb\u5165": 1044, "\u2581),": 1045, "bol": 1046, "\u0932\u0942": 1047, "\u2581cadres": 1048, "\u2581swim": 1049, "n\u012bca": 1050, "\u2581\u0421\u043e\u0432\u0435\u0442": 1051, "varo": 1052, "castle": 1053, "\u2581ecol": 1054, "\u2581Viz": 1055, "\u2581\u03c7\u03bf": 1056, "strateg": 1057, "ertu": 1058, "af": 1059, "\u03bf\u03c5\u03bb": 1060, "ro\u0121": 1061, "Lim": 1062, "\u8bda": 1063, "\u5929\u7684": 1064, "\u2581\u043d\u0435\u0442": 1065, "ossip": 1066, "\u2581obtenu": 1067, "\u2581kobiety": 1068, "\u2581taki": 1069, "\uce35": 1070, "\u2581dopol": 1071, "\u2581drugiego": 1072, "\u632b": 1073, "\u2581fiction": 1074, "\u2581Uff": 1075, "\u2581\uc758\uc6d0": 1076, "\u2581satellites": 1077, "schulen": 1078, "\u2581Sanders": 1079, "\u2581izraisa": 1080, "\u2581disponibbli": 1081, "\u2581Analysis": 1082, "\u2581\u043e\u043f\u044f\u0442\u044c": 1083, "\u2581prov\u00e1vel": 1084, "\u2581gott": 1085, "\u2581meeting": 1086, "\u2581infection": 1087, "eping": 1088, "\u2581stella": 1089, "krieges": 1090, "\u304c\u9ad8\u3044": 1091, "g\u00e5rd": 1092, "\u2581Flat": 1093, "\u2581libro": 1094, "amerikan": 1095, "\u2581Blanca": 1096, "leton": 1097, "\u305c": 1098, "cad": 1099, "arki": 1100, "\u2581\u0441\u044b": 1101, "\u2581Romeo": 1102, "\u2581norme": 1103, "\u2581tipico": 1104, "\u2581\u0420\u043e\u0431": 1105, "\u670b": 1106, "\u2581satisfact": 1107, "\u2581\u0161io": 1108, "\u2581benut": 1109, "\u2581\u015bredniej": 1110, "\u2581\u0631\u062d": 1111, "rical": 1112, "\u2581Egypte": 1113, "\u0449\u0438\u043a\u0430": 1114, "\u2581ortodoks": 1115, "\u2581\u0441\u0442\u0430\u0440\u0430": 1116, "\u2581fun\u00e7\u00e3o": 1117, "\u2581pit": 1118, "\u2581trzeci": 1119, "\u00e4cht": 1120, "\u2581\u0644\u0643\u0644": 1121, "\u2581\uacb0\uacfc": 1122, "\u2581muk": 1123, "sided": 1124, "\u2581/": 1125, "\u2581desired": 1126, "\u2581actes": 1127, "\u2581ventajas": 1128, "\u2581Navarro": 1129, "\u043b\u0438\u043d": 1130, "\u2581D\u00fc": 1131, "ingo": 1132, "\u2581\u0430\u043b\u044c\u0431\u043e": 1133, "\u2581terrorista": 1134, "\u2581cl\u00edn": 1135, "\u2581leist": 1136, "\u2581\u043f\u043e\u043b\u0451": 1137, "\u4e07\u4eba": 1138, "\u2581il\u00e7esine": 1139, "\u522b": 1140, "\u2581\u0926\u093f\u0932\u094d\u0932\u0940": 1141, "\u59e5": 1142, "\u2581dB": 1143, "elley": 1144, "\u2581Medical": 1145, "\ud558\uc5ec": 1146, "\u2581\u0437\u0434\u0430\u0442": 1147, "\u2581Slovenije": 1148, "gesetz": 1149, "pl": 1150, "nieuw": 1151, "^{-\\": 1152, "ikot": 1153, "\u2581Ottawa": 1154, "\u2581horizonte": 1155, "\u2581\u043a\u0432\u0430\u0440\u0442\u0438\u0440\u0435": 1156, "\u2581\u0411\u0430": 1157, "\u2581closure": 1158, "\u2581liegt": 1159, "ocup": 1160, "Press": 1161, "\u2581Visit": 1162, "fried": 1163, "\u2581taka": 1164, "\u0639\u0627\u0645": 1165, "\u2581\u043e\u0441\u043d\u043e\u0432\u044b": 1166, "\u2581koos": 1167, "meerika": 1168, "\u00e1la\u00ed": 1169, "\u2581collegamento": 1170, "\u2581muist": 1171, "\u03ba\u03cc": 1172, "\u592e": 1173, "\u2581visites": 1174, "\u043b\u043e\u0433\u0456": 1175, "\u2581m\u011blo": 1176, "mons": 1177, "\u2581\ud478": 1178, "\u2581registrada": 1179, "hem": 1180, "\u3068\u3057\u3066\u306e": 1181, "\u2581podkre\u015bla": 1182, "\u2581confirmation": 1183, "unju": 1184, "\u2581alma": 1185, "\u2581worker": 1186, "bah\u00e7e": 1187, "\u2581\u0646\u0648\u0641": 1188, "pflichtet": 1189, "arbeiten": 1190, "\u2581\u0627\u0644\u0623\u062f": 1191, "\u2581\u015fek": 1192, "\u2581\u043a\u043e\u043d\u0446\u0435\u0440": 1193, "\u0449\u0435\u0439": 1194, "\u4f11": 1195, "\u2581\u03c6\u03b9\u03bb\u03bf": 1196, "ihu": 1197, "\u2581bevorzug": 1198, "\u2581offerta": 1199, "\u2581d\u00e9bat": 1200, "\u2581federal": 1201, "hence": 1202, "\u2581electr\u00f2": 1203, "\u2581trades": 1204, "\u63b7": 1205, "\u2581vz": 1206, "punkten": 1207, "\u7169": 1208, "ories": 1209, "\u2581\u091c\u093f": 1210, "\u98ef": 1211, "\u0111": 1212, "\u0432\u043e\u0434\u0438": 1213, "\u2581Podob": 1214, "\u2581dysfunction": 1215, "\u2581dost\u0119pnych": 1216, "\u2581\u043f\u043e\u0440\u0442\u0443\u0433\u0430": 1217, "\u4f7c": 1218, "\u2581Cromwell": 1219, "\u2581pieni\u0105dze": 1220, "\u2581og\u0142osi": 1221, "\u2581Samo": 1222, "\u2581cotton": 1223, "AV": 1224, "\u00e9change": 1225, "\u2581\u0418\u0432\u0430\u043d": 1226, "\u2581deben": 1227, "\u2581\u0436\u0451": 1228, "\u2581behandeld": 1229, "\u2581pelos": 1230, "\u2581opci\u00f3n": 1231, "\u2581espect": 1232, "\u2581\u0432\u044a\u0437\u043c\u043e\u0436\u043d\u043e": 1233, "\u2581\u0627\u0644\u0645\u0648\u0642\u0639": 1234, "utiliser": 1235, "\u2581zarar": 1236, "eux": 1237, "\u2581Horace": 1238, "\u2581opponents": 1239, "emarken": 1240, "\u2581\u0121ewwa": 1241, "bishop": 1242, "\u2581partecipare": 1243, "\u2581prin\u010bipali": 1244, "correct": 1245, "\u2581coalici\u00f3n": 1246, "ondon": 1247, "tois": 1248, "\u60a3\u8005": 1249, "\u2581otrzy": 1250, "\u2581\u0428\u043e": 1251, "\u2581dipl": 1252, "\u2581highlight": 1253, "\u7684\u9ad8": 1254, "\u043d\u0443\u0454": 1255, "\u4eb3": 1256, "\u2581Soon": 1257, "\u00e6ll": 1258, "\ub10c": 1259, "\u7c21": 1260, "\u2581colegas": 1261, "\u2581Cl": 1262, "\u0939\u093e\u0902": 1263, "<0x49>": 1264, "\u0936\u094d\u092e\u0940": 1265, "ikos": 1266, "\u2581pozna": 1267, "\u9280": 1268, "isenberg": 1269, "\u2581\u043d\u0430\u0440\u0443\u0448\u0435\u043d\u0438\u044f": 1270, "sohn": 1271, "\u2581\u0447\u0442\u043e\u0431\u044b": 1272, "ueras": 1273, "yminen": 1274, "opera": 1275, "noble": 1276, "\u2581worldwide": 1277, "odan": 1278, "\u6c14": 1279, "\u00f3polis": 1280, "\u2581Bilder": 1281, "\ub837": 1282, "prac": 1283, "st\u00e5": 1284, "\uccb4\uc758": 1285, "\u2581\u2022": 1286, "\u2581\u0627\u0644\u0645\u0633": 1287, "\u043d\u043e\u0432\u043e": 1288, "\u2581\u0394\u03b7\u03bc\u03ae": 1289, "\u2581L\u00e9g": 1290, "\u2581Lif": 1291, "\u2581actitud": 1292, "\u2581sympathy": 1293, "\u2581Voor": 1294, "\u2581!!!": 1295, "\u2581Lese": 1296, "\u2581lucr": 1297, "\u2581\u043a\u043e\u043d\u0432\u0435\u0440": 1298, "odal": 1299, "\uc81c\ub97c": 1300, "\u2581\u0441\u044a\u0432\u0435\u0442": 1301, "\u2581\u0441\u043b\u0435\u0434\u0443\u0435\u0442": 1302, "\u2581\u0440\u0443\u0441\u0441\u043a\u043e\u0433\u043e": 1303, "\u2581infertility": 1304, "Bo": 1305, "menis": 1306, "\u2581\u043d\u0430\u043f\u0440\u0438\u043c\u0435\u0440": 1307, "\u0442\u0443\u0440\u0438": 1308, "\u2581\u043f\u0440\u0430\u0446\u044e\u0454": 1309, "ld\u00e1ul": 1310, "\u2581Kid": 1311, "\u2581daktaras": 1312, "\u2581\u0414\u0435\u043c\u043e": 1313, "\u2581sanoi": 1314, "\u0432\u0451": 1315, "\u91c0": 1316, "\u2581emotions": 1317, "fan": 1318, "\u0434\u0435\u043d\u0438\u0439": 1319, "\u2581middele": 1320, "\u2581\u044d\u0442\u043d\u043e": 1321, "\u2581notevole": 1322, "\u2581href": 1323, "\u2581dorsal": 1324, "\u2581proteggere": 1325, "\u2581cabo": 1326, "\u2581koli": 1327, "\u53d1\u884c": 1328, "\u2581eaa": 1329, "\u2581sovi\u00e9tico": 1330, "\u2581taobh": 1331, "\u2581laat": 1332, "\u92d2": 1333, "\u2581w\u015br\u00f3d": 1334, "\u2581ow": 1335, "\u306e\u3082\u306e": 1336, "\u4e0d\u662f": 1337, "\u2581\u0440\u0435\u0448\u0435\u043d\u0438\u0435": 1338, "bte": 1339, "\u2581Storb": 1340, "\u2581Scientific": 1341, "\u2581dominer": 1342, "\u2581S": 1343, "\u4ee3\u7406": 1344, "cribe": 1345, "\u0418\u0415": 1346, "\u5973\u6027": 1347, "\u2581Rain": 1348, "r\u00e1neo": 1349, "\u5208": 1350, "\u8c6c": 1351, "\u2581\ucc38\uac00": 1352, "\u2581\u043e\u0431\u0440\u0430\u0431\u043e": 1353, "la\u010d": 1354, "lapot": 1355, "\u2581\u092c\u0948": 1356, "rib": 1357, "\u2581znovu": 1358, "\u0442\u044e": 1359, "\u2581reveals": 1360, "\u2581kleine": 1361, "\u043b\u0435\u0441": 1362, "\u2581wycz": 1363, "\u2581h\u00f6her": 1364, "URN": 1365, "esen": 1366, "\u2581celebrated": 1367, "\u5f71\u97ff": 1368, "TE": 1369, "j\u0119": 1370, "\u2581\u062d\u0633\u0628": 1371, "vora": 1372, "\u2581reikaling": 1373, "\u0432\u0438\u0441": 1374, "alizz": 1375, "\u2581\u0442\u0440\u0443\u0431": 1376, "ueil": 1377, "\u2581\u0927\u0930\u094d\u092e": 1378, "\u30bd\u30d5\u30c8": 1379, "\u0101cija": 1380, "\u2581poles": 1381, "wang": 1382, "\u2581\ub4e4": 1383, "\u2581\u0433\u043e\u0440\u043e\u0434\u0430": 1384, "\u2581Emir": 1385, "\u2581supplying": 1386, "\u2581\u0440\u0430\u0437\u0432\u0438\u0432\u0430": 1387, "\u2581faci": 1388, "\u2581perfetta": 1389, "\u2581vari\u00e9t\u00e9": 1390, "\u2581dik": 1391, "nMod": 1392, "\u4eba\u5728": 1393, "osos": 1394, "\u2581uric": 1395, "\u2581helppo": 1396, "\u2581Kroat": 1397, "\u2581trudno\u0107e": 1398, "esas": 1399, "\u57d4": 1400, "\u2581ondernemers": 1401, "ejje": 1402, "\u2581\u092a\u094d\u0930\u0915\u093e\u0936": 1403, "\u2581\u03b3\u03b5\u03c1\u03bc\u03b1\u03bd": 1404, "\u2581stake": 1405, "\u2581dru": 1406, "inut": 1407, "offer": 1408, "\u2581peril": 1409, "hera": 1410, "\u2581estamp": 1411, "\u2581alcanzar": 1412, "\u2581reserva": 1413, "!!\\": 1414, "forma": 1415, "\u2581Saga": 1416, "\u3092\u3054": 1417, "Foto": 1418, "\u2581jad": 1419, "\u2581vau": 1420, "\u2581\u4e8c": 1421, "\u2581ji\u0121": 1422, "\u2581\u0442\u0430\u043a\u0438\u0445": 1423, "\u2581\u0441\u043a\u043b\u043e\u043d": 1424, "\u00e4m\u00e4ll\u00e4": 1425, "\u2581potrebe": 1426, "\u2581\u0440\u0435\u0447\u0438": 1427, "\u2581present": 1428, "iage": 1429, "\u043b\u044c\u043d\u043e\u043c": 1430, "\u2581pw": 1431, "\u2581Stock": 1432, "emed": 1433, "\u2581creazione": 1434, "\u2581utilise": 1435, "\u2581visitors": 1436, "\u2581\u043e\u0437\u043d\u0430\u0447\u0430": 1437, "\u011b\u017e": 1438, "\u2581val\u00f3sz\u00edn\u0171": 1439, "Bra": 1440, "\u2581Environ": 1441, "\u2581bacter": 1442, "quet": 1443, "\u2581herni": 1444, "\uc2b5\ub2c8\ub2e4": 1445, "\u2581pozd\u011bji": 1446, "\u2581Freund": 1447, "\u2581peut": 1448, "\u2581univerz": 1449, "\u2581sensitivity": 1450, "\u2581Giordano": 1451, "\u2581sw\u00f3j": 1452, "\u0921\u0947": 1453, "\u2581Mathieu": 1454, "\u306a\u304a": 1455, "\u2581Appendix": 1456, "ruh": 1457, "\u751f\u7522": 1458, "\u2581institui\u00e7\u00e3o": 1459, "\u2581setzen": 1460, "\u2581zonne": 1461, "\u2581tr\u00f3j": 1462, "\u2581Alle": 1463, "nAv": 1464, "\u2581\u043c\u0430\u0441\u0442\u0435\u0440": 1465, "kait": 1466, "\u2581sz\u00edn\u00e9szn\u0151": 1467, "\u2581tekm": 1468, "\u2581utwor": 1469, "\u5e97": 1470, "\u5ba3\u4f20": 1471, "\u0648\u0627\u0629": 1472, "riage": 1473, "\u043f\u043e\u0439": 1474, "\u2581Aks": 1475, "\uc704\ub85c": 1476, "\u2581termina": 1477, "ified": 1478, "\u51e0\u4e2a": 1479, "\u092a\u0940": 1480, "\u2581yht": 1481, "\u2581trapped": 1482, "\u2581continu\u00f2": 1483, "\u2581Teg": 1484, "\uc724": 1485, "\u7f14": 1486, "\u2581Tats": 1487, "\u0932\u093f": 1488, "\u2581download": 1489, "\u2581secret\u00e1rio": 1490, "\u2581\u03b1\u03b4\u03b5\u03bb": 1491, "\u2581kapsam\u0131nda": 1492, "\u2581hiring": 1493, "\u3053\u3046": 1494, "alten": 1495, "\u8a71\u984c": 1496, "\u2581replaced": 1497, "\u2581Syri": 1498, "\u2581affaires": 1499, "clip": 1500, "\u2581investigaci\u00f3n": 1501, "\u2581\u0433\u0440\u0430\u0436\u0434\u0430\u043d": 1502, "\u2581nominal": 1503, "ford": 1504, "\u2581musician": 1505, "\u2581nervi": 1506, "\u00a7": 1507, "\u2581\u0432\u0456\u0434\u0434\u0456": 1508, "\u2581challenged": 1509, "\u2581skept": 1510, "\u2581basit": 1511, "\u2581Quali": 1512, "grande": 1513, "\u0632\u064a\u0629": 1514, "\u2581apartment": 1515, "tex": 1516, "\u2581tracing": 1517, "\u0442\u043d\u043e\u0441\u0442\u0456": 1518, "\u20bd": 1519, "\u2581povijest": 1520, "\u2581sz\u00ed": 1521, "\u2581H\u00e4lfte": 1522, "\u2581Winst": 1523, "\u03b4\u03b5\u03b9\u03b3\u03bc\u03b1": 1524, "\u2581particuli\u00e8re": 1525, "\u2581immobili": 1526, "\u2581r\u00e9sze": 1527, "\u2581noss": 1528, "\u4e60\u8fd1\u5e73": 1529, "\u6388\u4e88": 1530, "\u2581vertelt": 1531, "{-": 1532, "\u2581colect": 1533, "\u2581CNN": 1534, "orghe": 1535, "rowad": 1536, "\u2581Gym": 1537, "\u0442\u0440\u0443\u0434": 1538, "\u0433\u0430\u043d\u0438": 1539, "\u2581modellen": 1540, "\u2581derecho": 1541, "architetto": 1542, "\u2581impacts": 1543, "\u2581Druck": 1544, "\u2581\u0927\u093e\u0930\u093e": 1545, "\u2581\u03ad\u03c1\u03b3": 1546, "\u2581tratamiento": 1547, "\u2581portions": 1548, "f\u00fcrst": 1549, "\u2581gier": 1550, "\u2581constitu": 1551, "\u2581venir": 1552, "opla": 1553, "['": 1554, "hetti": 1555, "\u2581Fontaine": 1556, "\u0441\u0442\u0432\u0435\u043d\u043d\u043e\u0435": 1557, "\u2581manusc": 1558, "\u0431\u0440\u043e": 1559, "\u2581vini": 1560, "zaw": 1561, "\u2581mitos": 1562, ")$-": 1563, "\u2581conceal": 1564, "\u043c\u0456\u0440": 1565, "\u2581participou": 1566, "\u2581stale": 1567, "\ub9ac\uace0": 1568, "\u2581despot": 1569, "\u2581epistem": 1570, "\u2581leak": 1571, "\u2581functies": 1572, "\u2581composition": 1573, "\u0440\u0435\u043c": 1574, "\u2581Toulouse": 1575, "\u2581Wellen": 1576, "\u2581budeme": 1577, "\u0446\u0438\u0430\u043b\u044c": 1578, "\u5168\u570b": 1579, "\u2581immers": 1580, "Day": 1581, "Om": 1582, "\u6e5f": 1583, "\u2581vliegen": 1584, "\u2581investigations": 1585, "\u52f8": 1586, "\u61c2": 1587, "\u2581Pocket": 1588, "\u2581uter": 1589, "\u2581rzeczyw": 1590, "\u2581k\u0142op": 1591, "\u2581\u0441\u043e\u0441\u0442\u0430\u0432\u043b\u044f": 1592, "\u2581\u00f6elda": 1593, "\u2581bheadh": 1594, "\u74f7": 1595, "\u2581\u092e\u093e\u0924\u094d\u0930\u093e": 1596, "\u2581Konk": 1597, "\u2581kerken": 1598, "\u2581za": 1599, "\u2581eigenen": 1600, "\u2581\u092c\u093f\u091c": 1601, "NHK": 1602, "\ubc29": 1603, "\u2581Ars": 1604, "\u2581Lausanne": 1605, "\u78a9": 1606, "\u2581\u0440\u044b\u0431": 1607, "\u043a\u043b\u0430\u0441\u0441": 1608, "\u2581\u043a\u0440\u0435\u0441\u0442\u044c\u044f\u043d": 1609, "\u2581l\u00e6nge": 1610, "\u2581\u03b3\u03c1\u03b1": 1611, "\u2581\u043f\u0435\u0440\u0441\u043e": 1612, "\u043b\u043e\u0432\u0435\u043a": 1613, "\u2581Warszawa": 1614, "\u2581constellation": 1615, "\u2581riferisce": 1616, "\u03b1\u03c3\u03af\u03b1": 1617, "\u2581projecte": 1618, "mol": 1619, "\u2581isolation": 1620, "\u2581zomer": 1621, "\u2581ongel": 1622, "\u2581veta": 1623, "\u30de\u30f3\u30b7\u30e7\u30f3": 1624, "\u2581brie": 1625, "spieler": 1626, "\u2581adqu": 1627, "\u2581menys": 1628, "\u8f96": 1629, "for": 1630, "\u2581o\u015bwiet": 1631, "AME": 1632, "rouwen": 1633, "First": 1634, "\u2581\u2581\u2581\u2581\u2581\u2581\u2581\u2581\u2581\u2581\u2581": 1635, "\u2581Wym": 1636, "\u2581\u03c0\u03c1\u03bf\u03ba\u03b1": 1637, "\u041b\u0430": 1638, "\u2581discussion": 1639, "\u2581nov\u0113": 1640, "\u6bd5": 1641, "\u2581rekt": 1642, "\u6295\u8d44": 1643, "grat": 1644, "\u2581regards": 1645, "\u2581cercando": 1646, "\u0442\u043d\u044b\u0435": 1647, "\u2581https": 1648, "\u2581tornare": 1649, "\u6bcb": 1650, "\u2581scandal": 1651, "\u2581bundes": 1652, "\u2581pubblicit\u00e0": 1653, "\u2581\u0432\u043f\u0435\u0440": 1654, "\u2581Feb": 1655, "\u2581juny": 1656, "\u2581Droit": 1657, "xima": 1658, "zo\u015b\u0107": 1659, "\u2581woll": 1660, "\u2581Crist\u00f3bal": 1661, "\u2581asserted": 1662, "\u2581hort": 1663, "\u2581macht": 1664, "\u2581uitgebreid": 1665, "ifi\u00e9e": 1666, "\u2581sile": 1667, "\u2581brit\u00e2nica": 1668, "\u2581Geschwindigkeit": 1669, "\u2581Even": 1670, "acea": 1671, "ikir": 1672, "\u2581\u0440\u0430\u0441\u043f\u0440\u043e\u0441\u0442\u0440\u0430": 1673, "riso": 1674, "\u2581\u0443\u0441\u0442\u043e\u0439\u0447\u0438": 1675, "\uc885\uc758": 1676, "organiz": 1677, "stan": 1678, "iterran": 1679, "\u2581toliau": 1680, "\u043b\u043e\u0433\u0435": 1681, "\u2581culturelle": 1682, "\u2581Sla": 1683, "\u2581Creta": 1684, "Direttiva": 1685, "\u2581comunica\u00e7\u00e3o": 1686, "\u2581Ch\u00e1": 1687, "quist": 1688, "\u2581bibliotek": 1689, "\u2581alliance": 1690, "\u2581\u015bwi": 1691, "\u2581spo\u0142eczny": 1692, "\u2581nascer": 1693, "\u2581k\u00f3": 1694, "\u0433\u0434\u0435": 1695, "\u2581za\u010det": 1696, "\u0440\u0435\u0435": 1697, "m\u0173": 1698, "\u0445\u0442\u0430": 1699, "\u2581\u0648\u062f": 1700, "\u30cf": 1701, "\u2581how": 1702, "\u2581Rebecca": 1703, "\u0444\u0438\u0437\u0438": 1704, "\u2581Kenia": 1705, "\u2581durumunda": 1706, "\u2581excret": 1707, "\u2581quiz\u00e1s": 1708, "\u2581kohti": 1709, "\u2581Erit": 1710, "\u2581tac": 1711, "\u2581\u0645\u0637\u062d\u0646\u0629": 1712, "\u2581eingesetzt": 1713, "\u2581director": 1714, "kord": 1715, "\u2581provincia": 1716, "\u2581Based": 1717, "avanju": 1718, "\u6691": 1719, "aufen": 1720, "\u2581Bereiche": 1721, "\u2581appreci": 1722, "\u2581\u043d\u0435\u043f\u0440\u0430\u0432\u0438": 1723, "\u2581\u0936\u0940": 1724, ")}$": 1725, "quita": 1726, "\u2581Einen": 1727, "\u2581diskut": 1728, "Level": 1729, "n\u00e6v": 1730, "eleine": 1731, "iesz": 1732, "\u2581Haar": 1733, "Court": 1734, "\u043f\u043e\u0441\u043b\u0435\u0434\u0441\u0442\u0432\u0438\u0438": 1735, "\u2581pils\u0113t\u0101": 1736, "vrier": 1737, "\u2581Valent": 1738, "\u2581un": 1739, "\u2581pobo": 1740, "invent": 1741, "\u2581Convention": 1742, "st\u00fct": 1743, "\u6f3f": 1744, "\u2581reciente": 1745, "})=": 1746, "\u2581learn": 1747, "issu": 1748, "\uc601": 1749, "\u2581Zagreba": 1750, "\u2581V\u00e1m": 1751, "nale": 1752, "\u043a\u0430\u043d\u0447\u0438": 1753, "\uade0": 1754, "\u2581\u0437\u043c\u0456": 1755, "\u2581j\u0101": 1756, "\u2581Touch": 1757, "\u2581Cardi": 1758, "berge": 1759, "\u0633\u0628\u0627\u0628": 1760, "lime": 1761, "\u03bf\u03cd\u03c2": 1762, "\u2581Vaj": 1763, "\u2581\u03ba\u03b5\u03c6": 1764, "\u00c2": 1765, "\u2581beide": 1766, "\u4ed6": 1767, "\u2581mache": 1768, "\u2581magt": 1769, "\u2581\u0939\u0941\u0906": 1770, "r\u00e5": 1771, "zahlt": 1772, "<0x18>": 1773, "\uc0c1\uc5d0": 1774, "\u0434\u0435\u043d\u0442\u0430": 1775, "\u2581potre": 1776, "\u2581\u015feklinde": 1777, "\u0943": 1778, "\u2581nazi": 1779, "\u2581\u043a\u043b\u044e\u0447\u0435": 1780, "\u03bd\u03c9\u03bd": 1781, "\u30c3\u30ab\u30fc": 1782, "unsid": 1783, "Child": 1784, "\u2581st\u00e5": 1785, "Such": 1786, "\u2581sieviet": 1787, "\u2581junge": 1788, "\u2581poisoning": 1789, "\u0441\u0442\u0430\u0442\u0438": 1790, "\u2581\u043f\u043e\u043b\u0430": 1791, "\u2581Gil": 1792, "\u2581\u00e7al\u0131\u015fma": 1793, "utilis": 1794, "\u2581mine": 1795, "\u00fchrt": 1796, "\u2581\u00e9p\u00fclet": 1797, "\u2581d\u00f4": 1798, "\u2581nationaal": 1799, "\u2581roze": 1800, "\u2581\u039c\u03b1": 1801, "\u2581hierarchy": 1802, "haria": 1803, "\u2581doll": 1804, "acchi": 1805, "\u2581\u0163": 1806, "\u2581diante": 1807, "\u2581Egito": 1808, "\u0161ko": 1809, "iskas": 1810, "\u0447\u0435\u043d\u043a\u0430": 1811, "una": 1812, "isations": 1813, "ammer": 1814, "\u2581wydawn": 1815, "\uc5e5": 1816, "\u2581pairing": 1817, "\u5de6": 1818, "\u2581tehnyt": 1819, "gehend": 1820, "\u2581effektiv": 1821, "\u2581Bh": 1822, "\u043b\u0456\u0439": 1823, "\u2581\u0938\u0941\u0928": 1824, "ita\u00e7\u00e3o": 1825, "\u2581meat": 1826, "\u2581\u043a\u0440\u0430\u0457\u043d\u0456": 1827, "\u00e5k": 1828, "\u2581temple": 1829, "euro": 1830, "\u2581\u0436\u0435\u043d\u0449\u0438\u043d\u044b": 1831, "\u2581gov": 1832, "\u4e28": 1833, "\u7834\u89e3": 1834, "ilation": 1835, "\u2581punk": 1836, "\u2581r\u00e9fl": 1837, "\u2581internal": 1838, "\u043b\u0434": 1839, "\u0638\u0629": 1840, "\u2581olu": 1841, "BS": 1842, "\u2581\u0440\u0430\u0437\u043d\u043e\u0432\u0438": 1843, "wild": 1844, "\u2581hud": 1845, "\u2581v\u0161ak": 1846, "\u2581\u0932\u0917\u092d\u0917": 1847, "\u0434\u0443\u043c\u0430": 1848, "enting": 1849, "\u2581valits": 1850, "\u2581cors": 1851, "\u2581risalente": 1852, "Dor": 1853, "\u2581Ponad": 1854, "\u2581\u043f\u0456\u0434\u0442\u0440\u0438\u043c\u0443": 1855, "irac": 1856, "\u2581Bizans": 1857, "\u2581\u03b3\u03b1\u03bb\u03bb": 1858, "\u2581punish": 1859, "\u2581lot": 1860, "\u2581empire": 1861, "\u5e7f": 1862, "\u2581\u0442\u0440\u0430\u043c": 1863, "\u2581Thro": 1864, "\u2581monna": 1865, "\u2581Baltic": 1866, "\u2581BNP": 1867, "essione": 1868, "\u2581Tunisie": 1869, "\u2581\u0441\u0438\u043c\u0432\u043e": 1870, "\u2581selv": 1871, "\u5b50\u7684": 1872, "\u0219terea": 1873, "\u570f": 1874, "\u0938\u094d\u092f": 1875, "\u2581\u041d\u0435\u0443": 1876, "\u2581tirdz": 1877, "veks": 1878, "\u2581kansen": 1879, "\u2581liberaci\u00f3n": 1880, "Ap": 1881, "\u2581birle\u015f": 1882, "\uc2a4\ucf54": 1883, "\u2581Obras": 1884, "\u2581Fach": 1885, "nan": 1886, "ci\u00f3": 1887, "\u8f4e": 1888, "\u2581zosta\u0142o": 1889, "\u2581v\u00e4rldens": 1890, "\u2581Aonta": 1891, "\u2581Q": 1892, "ing": 1893, "\u2581activiteit": 1894, "\u2581inverno": 1895, "\u0441\u043a\u0443\u0440": 1896, "\u2581BV": 1897, "\u2581esquema": 1898, "\u03bc\u03ad\u03bd\u03b5\u03b9": 1899, "\u2581clu": 1900, "\u2581oktober": 1901, "gyvend": 1902, "ber": 1903, "inks": 1904, "\ucce4\ub2e4": 1905, "\u2581nout": 1906, "\u2581\u017ar\u00f3de\u0142": 1907, "\u2581Mara": 1908, "\u2581s\u0142o": 1909, "endal": 1910, "\u2581predsjed": 1911, "\u2581promove": 1912, "\u2581ty\u00f6ntek": 1913, "\u2581invalid": 1914, "\u2581\u0448\u0438\u0440\u043e\u043a\u0438\u0439": 1915, "d\u00edjas": 1916, "\u2581daf\u00fcr": 1917, "defined": 1918, "\u0915\u0930": 1919, "\u3092\u53d7": 1920, "alaisen": 1921, "\u2581Model": 1922, "\u2581Pakist": 1923, "ables": 1924, "\u2581Korean": 1925, "\u2581ko\u0144czy": 1926, "malla": 1927, "\u2581\u0437\u0430\u0432\u0435\u0440\u0448\u0438": 1928, "\u2581Jana": 1929, "\u72a0": 1930, "\u2581consume": 1931, "\u2581samop": 1932, "\u2581wykorzysta\u0107": 1933, "voerd": 1934, "RA": 1935, "\u2581keh": 1936, "\u2581Vervolgens": 1937, "goeding": 1938, "\u2581happiness": 1939, "ilm": 1940, "\u2581youngest": 1941, "\u2581occidentales": 1942, "\u2581Haus": 1943, "\u2581prote\u00ednas": 1944, "\u2581z\u00e1kladn\u00ed": 1945, "\u2581BR": 1946, "\u2581ebenso": 1947, "\u044c\u043e": 1948, "\u2581dette": 1949, "tic": 1950, "\u2581\u0395\u03c5\u03c1\u03ce": 1951, "\u2581exot": 1952, "\u0436\u043d\u043e\u043c": 1953, "\u2581Teen": 1954, "\u009e": 1955, "\u03c5\u03b3": 1956, "\u793e\u4f1a": 1957, "\u2581\u0441\u044a\u0449\u0435\u0441\u0442\u0432\u0443": 1958, "\u8514": 1959, "\u2581curta": 1960, "\u0441\u043b\u0435\u0434\u043e\u0432\u0430": 1961, "\u00fada": 1962, "\u2581curiosit\u00e0": 1963, "\u2581physician": 1964, "\u2581Alz": 1965, "\u2581milijuna": 1966, "\u2581beru": 1967, "aves": 1968, "\u600e": 1969, "mun": 1970, "\u2581ostatniej": 1971, "\u2581\u0444\u043e\u0442\u043e": 1972, "\u2581sall": 1973, "r\u00e5n": 1974, "istiin": 1975, "\u2581sup": 1976, "AND": 1977, "vant": 1978, "anglais": 1979, "\u2581niets": 1980, "\u2581cafe": 1981, "\u304e": 1982, "\u00e2nsito": 1983, "ICE": 1984, "\u2581\u044d\u043a\u043e\u043d\u043e\u043c\u0438": 1985, "\u52b2": 1986, "\u2581\u00faltima": 1987, "\u2581\u043d\u0430\u0441\u0442\u043e": 1988, "fittex": 1989, "ituksia": 1990, "\u2581porz\u0105dku": 1991, "\u2581Technik": 1992, "alny": 1993, "\u2581\u0112": 1994, "\u2581\u043e\u0447\u0430": 1995, "\u2581\u00f3g": 1996, "\u2581b\u00fa": 1997, "\u2581jestli": 1998, "\u2581wir": 1999, "\u2581pasaulyje": 2000, "\u2581Jerzego": 2001, "\u2581Fou": 2002, "\u00e9me": 2003, "\u2581Wi\u0119ks": 2004, "\u0432\u0430\u0435\u043c": 2005, "\u2581mascul": 2006, "\u2581\u0412\u0438\u0434\u0435\u043e": 2007, "\u2581typical": 2008, "\u2581\u03a4\u03c1\u03af": 2009, "\u2581crow": 2010, "\u2581experimentos": 2011, "\u2581najstar": 2012, "\u5c0f\u8bf4": 2013, "TD": 2014, "\u4e00\u8d77": 2015, "ynu": 2016, "\u2581Erd": 2017, "ricit\u00e9": 2018, "\u0442\u0438\u0432\u043d\u0438": 2019, "\u2581srityje": 2020, "\u2581n\u00e4stan": 2021, "\u67f3": 2022, "\u6a59": 2023, "bora": 2024, "\u2581niekt\u00f3re": 2025, "\u0631\u0641\u0629": 2026, "\u2581\u0441\u0435\u0440\u0434": 2027, "\u2581izjav": 2028, "\u2581\uc815\ubcf4": 2029, "\u0117jimo": 2030, "produkt": 2031, "tau": 2032, "\u00fcn\u00fc": 2033, "\u305f\u3068": 2034, "\u2581kontrolli": 2035, "radio": 2036, "\u091c\u0947": 2037, "\u5bb9\u91cf": 2038, "\u2581capital": 2039, "includegraphics": 2040, "Gl": 2041, "\u2581Stal": 2042, "\u2581relig": 2043, "\u2581\u042d\u043a": 2044, "\u2581kendte": 2045, "\u2581decidi": 2046, "amen": 2047, "\u2581Calabria": 2048, "\u2581diverso": 2049, "\u2581frontal": 2050, "@": 2051, "\u2581izrais": 2052, "\u2581Vent": 2053, "\u2581noz\u012b": 2054, "\u7480": 2055, "onaut": 2056, "\u2581\u0918\u094b\u0937\u0923\u093e": 2057, "\u2581Contempor": 2058, "\u2581\u00e4lteste": 2059, "\u2581detalles": 2060, "\u2581wcze\u015b": 2061, "\u2581Sugar": 2062, "\u2581Jugoslavije": 2063, "\u03c0": 2064, "\u2581Amendment": 2065, "\u2581destroy": 2066, "\u2581przepis": 2067, "\u2581reconhecer": 2068, "\u2581galvenok\u0101rt": 2069, "\u771f\u6b63": 2070, "\u2581Seit": 2071, "hline": 2072, "illeri": 2073, "\u2581pr\u00f3prio": 2074, "\u2581aujourd": 2075, "\u0431\u043e\u043c": 2076, "\u2581surrog": 2077, "\u57d7": 2078, "interpr": 2079, "\u2581Broadcasting": 2080, "\u2581Pixel": 2081, "\u2581Peugeot": 2082, "\u2581konuda": 2083, "\u2581Grim": 2084, "\u2581Unlike": 2085, "\u2581\u00e9l\u00e8ves": 2086, "\u2581\u0411\u043e\u0440\u0438\u0441": 2087, "etik": 2088, "\u2581mensaje": 2089, "unners": 2090, "\u2581\u03ac\u03c0\u03bf": 2091, "\u043a\u043e\u0440": 2092, "\u2581batch": 2093, "\u2581l\u00e1b": 2094, "\u043b\u0456\u043a": 2095, "\u7b72": 2096, "tur": 2097, "\u2581Spitze": 2098, "ixer": 2099, "ick": 2100, "uksella": 2101, "\u2581dieren": 2102, "\u30ad\u30f3\u30b0": 2103, "\u2581fasi": 2104, "uner": 2105, "\u2581Emanuel": 2106, "\u2581:=": 2107, "\u0442\u0438\u0432\u043d\u0430\u044f": 2108, "\u2581ocasi\u00f3n": 2109, "wife": 2110, "\u5f1f": 2111, "alii": 2112, "\u2581Tad": 2113, "array": 2114, "\u2581underground": 2115, "\u2581\u0648\u062c\u0647": 2116, "\u2581extin\u00e7\u00e3o": 2117, "\u2581Amph": 2118, "pea": 2119, "<0xAD>": 2120, "ribe": 2121, "\u0430\u043d": 2122, "\u2581Lar": 2123, "\u2019\\": 2124, "\u79a6": 2125, "\u2581pile": 2126, "\u2581vrti": 2127, "\u2581entrare": 2128, "\u2581bevo": 2129, "\u2581icon": 2130, "\u0950": 2131, "\u2581\u0438\u043d\u044b\u0445": 2132, "\u2581limitar": 2133, "\u2581\u0434\u0440\u0443\u0433\u043e\u043c": 2134, "itecte": 2135, "\u904b\u52d5\u54e1": 2136, "\u2581\u0921\u093f": 2137, "\u2581Schaus": 2138, "\u03ba": 2139, "\u2581nn": 2140, "\u2581tilb": 2141, "eren": 2142, "\u0936\u0941": 2143, "\u2581\u0434\u0435\u043d\u044c\u0433\u0438": 2144, "\u2581g\u0142\u00f3wna": 2145, "icht": 2146, "videmment": 2147, "\u2581disegn": 2148, "\u2581diversit\u00e9": 2149, "\u2581dnev": 2150, "\u00cd": 2151, "\u2581partiti": 2152, "nuk": 2153, "\u2581\u043f\u0440\u043e\u0432\u043e\u0437\u0433\u043b\u0430": 2154, "alamus": 2155, "\u2581ong": 2156, "\u2581Tian": 2157, "\u2581trein": 2158, "\u2581Libri": 2159, "\u2581wi\u0119kszo\u015bci": 2160, "\u795d": 2161, "\u8aa0": 2162, "\u2581\u0431\u0435\u0437\u043f\u043e": 2163, "\u2581Mariana": 2164, "\u2581Small": 2165, "unka": 2166, "\u9633": 2167, "\u2581cent": 2168, "\u2581\u0421\u043e\u044e\u0437\u0430": 2169, "Two": 2170, "\u00e8vement": 2171, "\u2581assai": 2172, "\u2581\u0939\u094b\u0924\u093e": 2173, "\u2581chy": 2174, "\u2581hist\u00f3rico": 2175, "qqa": 2176, "\u2581Views": 2177, "perjodu": 2178, "\u2581\ud3d0": 2179, "heben": 2180, "\u0932\u0940\u0935\u0941\u0921": 2181, "\u2581\u0648\u0627\u0644\u062b": 2182, "\u2581Sweet": 2183, "\u0648\u0631\u0648\u0628\u0627": 2184, "\u00f6hn": 2185, "\u2581Stockholms": 2186, "vais": 2187, "\u2581\u0938\u094d\u0935\u0924\u0902\u0924\u094d\u0930\u0924\u093e": 2188, "voz": 2189, "\u2581\u0633\u0644\u064a\u0645": 2190, "\u2581bateau": 2191, "\u2581m\u016bs\u0173": 2192, "\u2581\u043e\u0434\u044f": 2193, "\u5d4c": 2194, "lici": 2195, "ch\u00e9e": 2196, "\u6a19\u6e96": 2197, "\u2581fen\u00f3menos": 2198, "ocation": 2199, "\u2581emo": 2200, "\u043a\u0442\u043e\u0440\u0430": 2201, "\u2581Chris": 2202, "\u2581commenti": 2203, "\u2581korun": 2204, "\u0641\u0627\u0621": 2205, "\u2581ervan": 2206, "\u2581Alien": 2207, "\u03b1\u03c1\u03af\u03bf\u03c5": 2208, "\u2581dergelijke": 2209, "\u2581especies": 2210, "\u2581chances": 2211, "\u0433\u0438\u0441\u0442\u0440\u0430": 2212, "\u2581wunder": 2213, "\u2581hrabstwie": 2214, "\u2581hormone": 2215, "ijdt": 2216, "\u2581beetje": 2217, "\u2581\u0421\u0438\u0431\u0438": 2218, "\u2581si\u00e8ges": 2219, "\u017eili": 2220, "\u0446\u0438\u043e\u043d\u043d\u044b\u0435": 2221, "\u2581pa\u017adziernika": 2222, "\u916c": 2223, "\u2581zamanda": 2224, "\u2581\u03c0\u03c9": 2225, "\u2581\u0431\u043b\u0438\u0437\u044c\u043a\u043e": 2226, "\u2581\u0438\u0441\u043f\u043e\u043b\u044c\u0437\u043e\u0432\u0430\u043d\u0438\u0435\u043c": 2227, "\u2581ch": 2228, "\u2581Neap": 2229, "\u2581El": 2230, "\u2581opciones": 2231, "\u2581awareness": 2232, "\u0105da": 2233, "presas": 2234, "Illustration": 2235, "\u5412": 2236, "\u2581osz": 2237, "\u2581kr\u00e4ft": 2238, "points": 2239, "\u2581pris\u00e3o": 2240, "stv": 2241, "\u2581Rusijos": 2242, "\u2581fertiliz": 2243, "\u2581Grunde": 2244, "\u2581ox": 2245, "apped": 2246, "city": 2247, "\u043f\u043f": 2248, "\u0447\u0430\u0435\u0442\u0441\u044f": 2249, "avenir": 2250, "\u2581\u043f\u0440\u043e\u0433\u043d\u043e": 2251, "\u2581possiede": 2252, "\u2581\u043f\u0430\u043c\u044f\u0442\u043d\u0438\u043a": 2253, "\u2581llegar": 2254, "\u2581issu": 2255, "\u2581por\u00f3wn": 2256, "\u0440\u0435\u0442\u0438": 2257, "\u2581kasutada": 2258, "\u2581\u0442\u0438\u043f\u0438": 2259, "\uc9c4\ub2e4": 2260, "adus": 2261, "\u2581verschijnen": 2262, "ul": 2263, "\u8863": 2264, "iske": 2265, "\u2581f\u00f6r": 2266, "\u2581koal": 2267, "\u2581zar": 2268, "\u2581Szczec": 2269, "wska": 2270, "\u00f3dzt": 2271, "\u2581Rom": 2272, "\u2581Jap\u00e3o": 2273, "czenia": 2274, "\u2581\u043b\u0438\u0446\u0435\u043d": 2275, "\u9791": 2276, "\u2581lokal": 2277, "\u2581\u0910\u0938\u093e": 2278, "\u2581Benjamin": 2279, "Ben": 2280, "\u2581Pendant": 2281, "oque": 2282, "\u2581ryhm": 2283, "\u2581lain": 2284, "r\u016b": 2285, "h\u00e1za": 2286, "ample": 2287, "\u2581sir": 2288, "\u2581uporaba": 2289, "\u2581university": 2290, "\u2581\u0436\u0435\u043b\u0430": 2291, "\u9887": 2292, "\u2581\u03c0\u03bf\u03c3\u03bf": 2293, "\u00e4tten": 2294, "\u2581obs\u0142ug": 2295, "\u2581pieno": 2296, "nKe": 2297, "\u2581entste": 2298, "\u2581minstens": 2299, "\u86e4": 2300, "uj\u0105cego": 2301, "chement": 2302, "atial": 2303, "rations": 2304, "hofen": 2305, "\u2581valge": 2306, "\uc810\uc744": 2307, "\u2581keskk": 2308, "lt": 2309, "encial": 2310, "atever": 2311, "\uc813": 2312, "onya": 2313, "\u0628\u0629": 2314, "irbh": 2315, "\u012bn": 2316, "\u2581bezmaksas": 2317, "\uae68": 2318, "\u2581colomb": 2319, "\u2581If": 2320, "omiast": 2321, "\u2581competir": 2322, "\u2581screening": 2323, "ritos": 2324, "\u2581izgl": 2325, "\u2581tradizioni": 2326, "\u2581za\u010dne": 2327, "Hospital": 2328, "hair": 2329, "ilien": 2330, "\u2581require": 2331, "\u2581\u0438\u0437\u043a\u043b\u044e\u0447\u0438": 2332, "\u043f\u0440\u0438\u043b": 2333, "\u6295\u6ce8": 2334, "\u092f\u0941\u0915\u094d\u0924": 2335, "\u7a77": 2336, "\u2581Craw": 2337, "\u2581faced": 2338, "an\u00ed": 2339, "ername": 2340, "\u2581zatrud": 2341, "n\u0173": 2342, "\u2581categorized": 2343, "\u2581iedz": 2344, "\u0648\u0627\u0635\u0644": 2345, "nake": 2346, "\u2581hei\u00dfen": 2347, "\u2581Valladolid": 2348, "iasm": 2349, "\u2581\uc77c\uc5b4\ub098": 2350, "\u2581wygl\u0105d": 2351, "\u2581verander": 2352, "\u2581\u092a\u094d\u0930\u0927\u093e\u0928\u092e\u0902\u0924\u094d\u0930\u0940": 2353, "\u2581choinne\u00e1il": 2354, "\u00e5de": 2355, "\u2581Essex": 2356, "estellt": 2357, "\u2581drabi": 2358, "\u6297\u65e5": 2359, "\u9905": 2360, "\u2581iniciar": 2361, "\u6587\u4ef6": 2362, "\u8015": 2363, "\u2581videoju": 2364, "\u043d\u0438\u0432": 2365, "\ub4c0": 2366, "\u2581Kal": 2367, "\u0219ul": 2368, "\u2581brukar": 2369, "\u2581throm": 2370, "\u2581n\u00f6t": 2371, "\u2581\u0432\u0435\u0440\u0442\u0438\u043a\u0430": 2372, "\u2581pept": 2373, "\u2581($": 2374, "\u2581transforma": 2375, "\u012bs": 2376, "\u2581ox\u00edgeno": 2377, "\u2581cuesti\u00f3n": 2378, "\u0625\u0630\u0627": 2379, "\u2581pravdepodobne": 2380, "\u0441\u043e\u0432\u0435\u0442": 2381, "Each": 2382, "\u2581soulign\u00e9": 2383, "\u03c3": 2384, "\uace0": 2385, "\u00e9sek": 2386, "ijkt": 2387, "\u2581\uc2b5": 2388, "\u2581Stimmen": 2389, "\u2581escrit": 2390, "\u2581\u0442\u044a\u0440": 2391, "\u00fcll": 2392, "\u2581\u043f\u0435\u0440\u0435\u043c\u0435\u043d": 2393, "\u2581unterst\u00fct": 2394, "huis": 2395, "omr\u00e5de": 2396, "\u2581legacy": 2397, "\u2581verleden": 2398, "\u0917\u0930\u0940": 2399, "ranc": 2400, "\u2581\u043b\u0443\u0447\u0448\u0438\u0445": 2401, "sko": 2402, "fall": 2403, "\u2581\u062a\u0639\u0631\u0641": 2404, "\u2581gelesen": 2405, "INT": 2406, "\u2581doit": 2407, "gevuld": 2408, "NV": 2409, "\u2581s\u00f6\u00f6": 2410, "\u2581Pasc": 2411, "\u2581foresta": 2412, "esis": 2413, "\u0449\u0435\u043d\u0438\u0438": 2414, "\u2581\u03c7\u03ac": 2415, "v\u0101r": 2416, "udel": 2417, "\u2581urb": 2418, "\u2581nivell": 2419, "\u2581Jann": 2420, "\u2581\u043c\u0438\u043d\u0438\u043c\u0430": 2421, "\uc068": 2422, "\u2581\ucd5c\uc18c": 2423, "reck": 2424, "\u2581anonim": 2425, "oscopy": 2426, "\u2581\u043f\u043e\u0434\u0445\u043e\u0434\u044f": 2427, "alin": 2428, "\u2581manuten\u00e7\u00e3o": 2429, "\u2581pats": 2430, "\u043c\u0430\u043b\u043e": 2431, "\u2581Rum": 2432, "\u5efa\u8bbe": 2433, "\u2581juz": 2434, "\u041c\u0443": 2435, "Ele": 2436, "fahrer": 2437, "\u0447\u0435\u0433\u043e": 2438, "\u82ad": 2439, "\u2581\u015fu": 2440, "feadh": 2441, "\u043d\u043d\u0430\u044f": 2442, "\u2581ayer": 2443, "\u2581paid": 2444, "\u2581y\u00fck": 2445, "\u2581CD": 2446, "\u2581Esistono": 2447, "\u2581albumin": 2448, "\u2581advertis": 2449, "\u2581terzi": 2450, "\u8cbb\u7528": 2451, "\u2581better": 2452, "\u2581plaster": 2453, "\u2581good": 2454, "\u2581Matth": 2455, "\u2581Deutschland": 2456, "izmo": 2457, "\u2581acquist": 2458, "\u00e4ll\u00f6in": 2459, "\u2581\u0448\u0430\u0440": 2460, "\u2581stacc": 2461, "\u2581servis": 2462, "\u30ea\u30ab": 2463, "\u2581mek": 2464, "\u2581poemas": 2465, "\u2581\ud1b5\uc77c": 2466, "ettaq": 2467, "\u2581d\u00f4le": 2468, "\u2581f\u00f8rte": 2469, "\u2581g\u00e2nd": 2470, "\u2581banlie": 2471, "\u2581meda": 2472, "\u2581europeia": 2473, "\u2581\u03c1\u03bf": 2474, "\u2581bedste": 2475, "\u2581\u03cd": 2476, "\u2581g\u0142\u00f3wny": 2477, "\u2581europe": 2478, "\u2581Kirch": 2479, "\u2581\u0430\u0434": 2480, "erdem": 2481, "\u2581Moli": 2482, "\u2581asemel": 2483, "\u584a": 2484, "\u2581coco": 2485, "makers": 2486, "lv": 2487, "\u2581estiver": 2488, "\u30bf\u30a4": 2489, "\u2581Czas": 2490, "\u2581jaz": 2491, "\u2581gesto": 2492, "\u2581Galerie": 2493, "\u2581\u0939\u093e\u0930": 2494, "\u2581\uc624": 2495, "\u2581traveled": 2496, "\u2581oath": 2497, "isca": 2498, "\u2581orice": 2499, "itai": 2500, "\u2581Schen": 2501, "\u2581\u0434\u0435\u0441\u044f": 2502, "\u2581geproduceerd": 2503, "\u2581proxy": 2504, "\u2581vysok": 2505, "\u2581Dire": 2506, "\u4f5c\u6218": 2507, "ilhar": 2508, "\u2581apag": 2509, "\u00e9st": 2510, "\u2581occupation": 2511, "\u00fc\u00fcd": 2512, "\u2581reflux": 2513, "\u2581uyar": 2514, "\u2581facil": 2515, "\u2581Technical": 2516, "\u2581f\u00e5r": 2517, "\u2581\u0441\u0430\u043c\u044b\u043c": 2518, "\u2581nombreux": 2519, "\u2581Range": 2520, "\u2581bo": 2521, "\u2581$.": 2522, "arians": 2523, "\uadf8\ub798": 2524, "\u2581t\u00e1b": 2525, "\u2581japo\u0144ski": 2526, "\u2581po\u010dtu": 2527, "\u2581fle": 2528, "liz": 2529, "\u2581thread": 2530, "\u2581associ\u00e9": 2531, "\u2581ch\u00f3ir": 2532, "ba\u017c": 2533, "iseks": 2534, "wiadu": 2535, "\u2581Cannabis": 2536, "\u2581v\u00f5it": 2537, "\u2581\u03bc\u03b1": 2538, "\u2581seksual": 2539, "\u2581surgical": 2540, "\u2581exempel": 2541, "\u2581\u043e\u043f\u043b\u0430": 2542, "egu\u017e\u0117s": 2543, "ury": 2544, "vania": 2545, "\u2581\u0441\u043f\u0435\u0446\u0438\u0430\u043b\u044c": 2546, "irii": 2547, "lade": 2548, "\u2581\u0438\u0433\u0440\u0430": 2549, "andin": 2550, "\u2581paig": 2551, "\u2581SER": 2552, "\u2581salir": 2553, "\u2581Arist": 2554, "\u2581\u0441\u0442\u043e\u0441\u0443": 2555, "\u2581financi": 2556, "\u2581bogat": 2557, "adas": 2558, "\u4e2d\u6587": 2559, "\u2581Kr": 2560, "\u2581confer": 2561, "zeichen": 2562, "\u2581wirken": 2563, "oureux": 2564, "\u0113ma": 2565, "\u2581p\u0142yw": 2566, "\u2581operation": 2567, "\u2581aufgestellt": 2568, "\u0131lara": 2569, "\u2581partecipanti": 2570, "inine": 2571, "\u0440\u043e\u043a": 2572, "ponde": 2573, "\u2581\u03c0\u03ac\u03bd\u03c4\u03b1": 2574, "\u2581vorher": 2575, "\u2581Cock": 2576, "\u2581Hol": 2577, "Sab": 2578, "\u0412\u0414": 2579, "\u2581Objekte": 2580, "\uc601\ud654": 2581, "neither": 2582, "\u2581\u043d\u0430\u0441\u043e": 2583, "\u2581\u043c\u043e\u0436\u043d\u043e": 2584, "\u2581\u0627\u0644\u062d\u0635\u0648\u0644": 2585, "enes": 2586, "\u2581\u0442\u043e\u0440\u043c\u043e": 2587, "tement": 2588, "\u2581send": 2589, "\u2581\u043d\u0435\u0451": 2590, "States": 2591, "\ubcf8": 2592, "\u2581marido": 2593, "\u0442\u0432\u043e\u0440\u0438": 2594, "f\u00fc": 2595, "\u30fb": 2596, "\u2581Alg": 2597, "\u2581\u0435\u0442": 2598, "\u2581longas": 2599, "\ub140": 2600, "\u2581k\u0131s": 2601, "\u2581\u0433\u043e\u0434\u043e\u043c": 2602, "\u00f8n": 2603, "\u716c": 2604, "\u2581informaci\u00f3": 2605, "\u2581ofertas": 2606, "\u2581completamente": 2607, "\u2581liga": 2608, "\u2581\u0926\u094b\u0938\u094d\u0924": 2609, "\u2581son": 2610, "iefert": 2611, "\u2581\u0456\u043d\u0444\u043e\u0440\u043c\u0430": 2612, "\u2581kitab": 2613, "\u044e\u0449\u0438\u0435\u0441\u044f": 2614, "\u2581schreiben": 2615, "\u2581suffis": 2616, "\u2581Wern": 2617, "Mars": 2618, "\u2581Anton": 2619, "U": 2620, "\u2581\u091c\u093e\u0924\u093e": 2621, "\u2581Alejandro": 2622, "\u6749": 2623, "hima": 2624, "\u03ba\u03c1\u03b1\u03c4\u03bf": 2625, "streeks": 2626, "\u2581rifless": 2627, "\u062b\u0627\u0631": 2628, "\u2581g\u00ea": 2629, "yorum": 2630, "\u2581Ko\u015bci\u00f3\u0142": 2631, "dok": 2632, "\u2581\u092e\u0941\u0916\u094d\u092f\u092e\u0902\u0924\u094d\u0930\u0940": 2633, "mium": 2634, "annonce": 2635, "\u570b\u6c11\u9ee8": 2636, "uela": 2637, "\u661f": 2638, "\u2581Zb": 2639, "\u2581vypl": 2640, "\u8840": 2641, "\u2581js": 2642, "\u2581\u0432\u0441\u044f": 2643, "\u2581blik": 2644, "\u2581\uc758\uc0ac": 2645, "\u2581Dazu": 2646, "\u2581examined": 2647, "\u2581aquests": 2648, "indt": 2649, "\u2581\u043f\u0441\u0438\u0445\u043e": 2650, "\u2581area": 2651, "elsea": 2652, "raat": 2653, "\u2581\u043d\u0430\u0441\u0442\u0440\u043e\u0435": 2654, "\u2581p\u0159\u00edli\u0161": 2655, "\u2581Results": 2656, "\u2581Les": 2657, "\u2581Insp": 2658, "\u2581profesjonal": 2659, "\u2581kazan": 2660, "\u2581zahte": 2661, "\u2581fuel": 2662, "\u2581blomster": 2663, "etzung": 2664, "\u2581carry": 2665, "n\u0151": 2666, "\u8a3c": 2667, "familiar": 2668, "sket": 2669, "\u2581ripresa": 2670, "\u2581Criminal": 2671, "\u76cf": 2672, "\u2581\u043e\u043d\u043e": 2673, "\u2581menor": 2674, "\u2581stond": 2675, "\u6d85": 2676, "\u2581\uc788\ub294\ub370": 2677, "\u2581Ma\u0142gor": 2678, "\u2581Jamie": 2679, "\u2581Pa\u00edses": 2680, "\u2581r\u00f3mai": 2681, "\u81fb": 2682, "\u2581engineers": 2683, "\u2581\u043c\u0443\u0437\u0435\u0439": 2684, "otype": 2685, "\u2581healing": 2686, "\u2581putem": 2687, "\u2581permanece": 2688, "\u2581\u0627\u0644\u0633\u0646": 2689, "\u2581lith": 2690, "\u2581logements": 2691, "ink": 2692, "\u2581estancia": 2693, "\u2581perspect": 2694, "Ont": 2695, "\u2581advance": 2696, "\u2581samfund": 2697, "\u7c92\u5b50": 2698, "\u2581Apesar": 2699, "\u2581Prinzip": 2700, "\u2581kt\u00f3rymi": 2701, "\u2581cicl": 2702, "a\u017c": 2703, "\u2581propriedade": 2704, "\u2581utwor\u00f3w": 2705, "\u00f3b": 2706, "\u2581\u0441\u0435\u043a\u0440\u0435": 2707, "\u2581utilis\u00e9s": 2708, "\u2581Declaration": 2709, "\u2581\u0430\u0432\u0442\u043e\u043c\u043e": 2710, "nK": 2711, "\u2581z\u0142o": 2712, "isiert": 2713, "acio": 2714, "velle": 2715, "\u043b\u0438\u0442": 2716, "\u2581topological": 2717, "\u2581cabinet": 2718, "\u2581:)\\": 2719, "deeld": 2720, "ojums": 2721, "\u2581conquered": 2722, "\u2581Amerik": 2723, "\u2581fronti\u00e8res": 2724, "udin": 2725, "\u8a55\u4fa1": 2726, "\u2581initiate": 2727, "\u7684\u5730\u65b9": 2728, "PRO": 2729, "\u2581\u0436\u0443\u0440\u043d\u0430\u043b": 2730, "\u2581unii": 2731, "\u2581\u043f\u043e": 2732, "\u2581podlagi": 2733, "\u2581NASA": 2734, "\u2581dovol": 2735, "\u2581Derechos": 2736, "\u2581\u0421\u043e\u0432\u0435\u0442\u0441\u043a\u043e\u0433\u043e": 2737, "\u2581panu": 2738, "\u2581leads": 2739, "\u062f\u064a\u0645\u0642\u0631\u0627": 2740, "\u7260": 2741, "ujeme": 2742, "\u2581storo\u010dia": 2743, "\u2581analyzed": 2744, "\u2581geboren": 2745, "vezd": 2746, "\u2581\u0434\u043e\u0441\u0442\u044a\u043f": 2747, "At": 2748, "\u2581Federer": 2749, "\u2581Hochsch": 2750, "\u2581Surgery": 2751, "veli": 2752, "\u2581t\u0142um": 2753, "\u2581t\u00f6\u00f6": 2754, "\u2581stanowi": 2755, "\u2581Num": 2756, "\u2581repr\u00e9sentations": 2757, "\ub529": 2758, "\u2581\u0444\u0440\u0430\u043d\u0446\u0443\u0437\u0441\u043a\u0438\u0439": 2759, "ted": 2760, "\u2581patik": 2761, "\u2581\u043a\u043e\u0440\u043f\u043e\u0440\u0430": 2762, "\u2581isp": 2763, "\u2581inimigos": 2764, "koz\u00f3": 2765, "\u2581\u7b2c\u4e8c": 2766, "sk": 2767, "\u2581\u00dcbersch": 2768, "\u2581iterations": 2769, "\u2581Tarn": 2770, "\u00e6r": 2771, "\u0441\u0442\u043e\u043a": 2772, "\u2581ir": 2773, "complete": 2774, "\u043d\u043e\u0432\u0435\u043d": 2775, "ainm": 2776, "\u2581susp": 2777, "\u2581pom\u00f3c": 2778, "van\u00ed": 2779, "\u2581Allemands": 2780, "\u2581citato": 2781, "\u2581proza": 2782, "\u2581\u201c\u2018": 2783, "\u2581erud": 2784, "\u2581bush": 2785, "rian": 2786, "\u2581construction": 2787, "\u2581ov": 2788, "\u2581m\u00faltiples": 2789, "\u2581edizione": 2790, "\u2581\\;": 2791, "\u2581advis": 2792, "\u0440\u044d": 2793, "etler": 2794, "\u2581verzorg": 2795, "ttis": 2796, "\u6cd5\u9662": 2797, "\u2581\u043f\u0440\u0438\u0432\u0435\u0441\u0442\u0438": 2798, "\u2581folcl": 2799, "\u5197": 2800, "\u72ec\u81ea": 2801, "\u2581indiv\u00eddu": 2802, "\u8b66\u65b9": 2803, "electric": 2804, "\u015bla": 2805, "\u0627\u0647\u062f": 2806, "\u2581facteur": 2807, "alaus": 2808, "baud": 2809, "ytt\u00e4\u00e4": 2810, "\u017celi": 2811, "\u5170": 2812, "\u5438\u6536": 2813, "\u2581britsk\u00fd": 2814, "acciones": 2815, "ARA": 2816, "\uce78": 2817, "\u043b\u043e\u0436\u0435\u043d\u0438\u0435": 2818, "\u51ac\u5b63": 2819, "\u2581citizenship": 2820, "\u2581r\u00f3\u017cnego": 2821, "\u2581h\u00e5r": 2822, "\u2581sievie\u0161u": 2823, "itionen": 2824, "\u2581Conseil": 2825, "\u2581Irene": 2826, "\u6628": 2827, "przez": 2828, "\u066c": 2829, "\u0437\u043e\u0432\u044b": 2830, "\u2581r\u00fa": 2831, "\u2581kreat": 2832, "\u2581k\u00fcl\u00f6n": 2833, "kolwiek": 2834, "weisung": 2835, "\u2581\u041a\u043b\u044e": 2836, "\u2581verstanden": 2837, "\u2581Hersteller": 2838, "\u2581\u0421\u043e\u044e": 2839, "\u2581port\u00e9": 2840, "\u2581joints": 2841, "\u2581novembro": 2842, "cony": 2843, "\u2581servici": 2844, "\u0442\u0443\u0440": 2845, "\u2581j\u00e4l": 2846, "\u2581bizant": 2847, "mai\u0146as": 2848, "\u2581nemici": 2849, "\u7d19": 2850, "\u2581after": 2851, "\u2581\uc5f4\ub9b0": 2852, "\u2581\u0432\u043f\u043e\u0441\u043b\u0435\u0434\u0441\u0442\u0432\u0438\u0438": 2853, "m\u00f6gen": 2854, "\u2581lancio": 2855, "\u2581FA": 2856, "\u2581gelang": 2857, "\u2581pleno": 2858, "\u2581faccia": 2859, "\u307b\u307c": 2860, "\u2581ocz": 2861, "\u2581St\u00e9ph": 2862, "\u2581ectopic": 2863, "\uc9dc": 2864, "])": 2865, "\u2581refugees": 2866, "\u2581\u0431\u0456\u043b\u044c": 2867, "\u2581Hor": 2868, "\u2581\u03b4\u03bf\u03c5\u03bb\u03b5\u03b9": 2869, "\u2581aktive": 2870, "\u2581b\u00e9n\u00e9ficier": 2871, "\u2581ambiente": 2872, "ietis": 2873, "\u2581saab": 2874, "\u2581olup": 2875, "\u5b81": 2876, "\u2581\uc774\ub294": 2877, "\u2581najm": 2878, "\u2581fandt": 2879, "\u656c": 2880, "\u2581c\u00e9r\u00e9": 2881, "\uc774\ud130": 2882, "\u2581\u0441\u043e\u0431\u0438\u0440\u0430": 2883, "\u2581awans": 2884, "\u0631\u0639": 2885, "\u2581ziekte": 2886, "ered": 2887, "HA": 2888, "afar": 2889, "\u2581probl\u00e8mes": 2890, "\u043a\u043e\u0441\u0442\u0438": 2891, "\u2581NBA": 2892, "\u0432\u0456\u0442": 2893, "\u2581d\u017awi\u0119": 2894, "amu": 2895, "\u2581vad": 2896, "\u2581utg": 2897, "angolo": 2898, "\u2581prepared": 2899, "\u2581virzien": 2900, "\u011br": 2901, "\u0437\u043c": 2902, "\u5173\u4e8e": 2903, "\u2581starszych": 2904, "\u2581annual": 2905, "wolf": 2906, "\u2581f\u00f6rst\u00e5": 2907, "\u2581\u0642\u0627\u0626\u0645\u0629": 2908, "\u2581emb": 2909, "rope": 2910, "\u2581\u0432\u044b\u0441\u043e\u043a\u0438\u043c": 2911, "\u516c\u5143\u524d": 2912, "\u2581szep": 2913, "\u2581\u039f\u03ba": 2914, "\u2581Tool": 2915, "org": 2916, "\u2581ilmus": 2917, "\u2581estimular": 2918, "\u2581prvog": 2919, "\u7834": 2920, "\u2581\u010dty": 2921, "...).": 2922, "\u2581gru": 2923, "\u2581ilhas": 2924, "\u2581S\u00e1b": 2925, "\u0448\u0430\u044e\u0442": 2926, "\u2581\uc911\uc2ec\uc73c\ub85c": 2927, "enc": 2928, "oc\u00ea": 2929, "\u2581dwuk": 2930, "\u017ean": 2931, "\u98de\u673a": 2932, "jus": 2933, "\u2581ul": 2934, "numru": 2935, "\u2581assolutamente": 2936, "\u2581\u0938\u092e\u093e\u092a\u094d\u0924": 2937, "\u2581ca\u0142a": 2938, "\u2581subter": 2939, "raba": 2940, "\u2581privacy": 2941, "\u2581bureauc": 2942, "\u2581mld": 2943, "\u2581v\u00f5ib": 2944, "\u2581hizmeti": 2945, "\u2581\u0907\u0938\u0915\u093e": 2946, "\u2581suivre": 2947, "\u2581redov": 2948, "\u2581Bacter": 2949, "\u2581Flas": 2950, "\u2581Mino": 2951, "\u2581eso": 2952, "\u2581Piem": 2953, "entin": 2954, "\u0433\u0430\u043d\u0430": 2955, "\u2581reggae": 2956, "\u2581\u0434\u0435\u0442\u0435\u0439": 2957, "\u2581ischemic": 2958, "\u00f3val": 2959, "\u2581\u0434\u0456\u044f": 2960, "\u2581razem": 2961, "\u2581multipl": 2962, "ologiske": 2963, "\u2581len": 2964, "zzjonijiet": 2965, "\u2581Ces": 2966, "\u2581lokalnych": 2967, "\u2581\u043b\u0438\u0442\u0435\u0440\u0430\u0442\u0443\u0440\u044b": 2968, "\u2581Cristiano": 2969, "\u3089": 2970, "\u2581hvem": 2971, "\u2581jak": 2972, "\u2581\u03bd\u03b7\u03c3\u03af": 2973, "iete": 2974, "\u2581immort": 2975, "lar\u0131": 2976, "\u2581RE": 2977, "\u2581centrali": 2978, "\u2581Tant": 2979, "ranse": 2980, "strijden": 2981, "\u809d": 2982, "\u2581edil": 2983, "\u2581tended": 2984, "\u0441\u0440\u0435\u0434": 2985, "esian": 2986, "\u2581Bub": 2987, "\u2581\u00e9": 2988, "\u2581entang": 2989, "\u7570": 2990, "\u2581\u0113": 2991, "\u2581Filip": 2992, "\u2581\u0440\u044b\u043d\u043a\u0430": 2993, "\u2581sheep": 2994, "\u2581sample": 2995, "just": 2996, "\u2581Proper": 2997, "\u2581wichtiger": 2998, "\u043f\u043a\u0438": 2999, "inink\u0173": 3000, "\u2581templ": 3001, "\u2581Fit": 3002, "\u2581myeloma": 3003, ",.": 3004, "jedin": 3005, "Say": 3006, "\u9727": 3007, "\u2581o\u017euj": 3008, "\u2581establecer": 3009, "\u2581mieh": 3010, "\u2581obey": 3011, "\u03b5\u03bd\u03c4": 3012, "\u2581lekt": 3013, "left": 3014, "nets": 3015, "\u2581persoonlijke": 3016, "\u2581\u03c7\u03b5\u03b9": 3017, "\u2581\u043f\u043e\u043a\u0430\u0437\u044b\u0432\u0430\u0435\u0442": 3018, "\u2581znajd": 3019, "\u2581Determin": 3020, "\u2581entender": 3021, "\u2581opz": 3022, "\u2581Sain": 3023, "midd": 3024, "\u2581Mink": 3025, "derte": 3026, "\u0940\u0928": 3027, "\u2581sinu": 3028, "\u2581hora": 3029, "\u2581accanto": 3030, "\u2581f\u00f6rh\u00e5l": 3031, "\u2581greu": 3032, "\u2581\uadf8\ub9ac": 3033, "\u2581beliebt": 3034, "\u2581lau": 3035, "\u2581y\u00fczden": 3036, "\u2581tette": 3037, "\u2581spaud": 3038, "itar": 3039, "\u2581\u03b8\u03ad": 3040, "Ms": 3041, "\u2581combinaci\u00f3n": 3042, "\u2581kaup": 3043, "\u2581Op\u0107": 3044, "\u2581uzysk": 3045, "\u2581sta\u0142y": 3046, "\u2581Valst": 3047, "imar\u00e3es": 3048, "\u2581teatrale": 3049, "juk": 3050, "wish": 3051, "\u2581needle": 3052, "<extra_id_62>": 3053, "\u2581sensation": 3054, "\u2581Griekse": 3055, "kownik": 3056, "\u2581Rzym": 3057, "\u017ei\u016br": 3058, "hez": 3059, "\u2581say\u0131da": 3060, "\u2581\u0444\u0430\u043c\u0438": 3061, "\u2581\u0625\u0644": 3062, "n\u00e9mu": 3063, "\u2581disputed": 3064, "\u093e\u0928\u094b\u0902": 3065, "\u2581sly": 3066, "j\u00f8r": 3067, "\u2581perspectives": 3068, "\u2581razy": 3069, "achts": 3070, "\u90b1": 3071, "\u2581\uc9c0": 3072, "\u2581dywiz": 3073, "acci": 3074, "uj\u0105cy": 3075, "\u2581Mikl\u00f3s": 3076, "mez": 3077, "r\u00f2": 3078, "ffer": 3079, "Rs": 3080, "\u2581kregen": 3081, "\u2581bezw": 3082, "ir": 3083, "\u2581zew": 3084, "\u03b1\u03c4\u03c1": 3085, "heiro": 3086, "\u80cc": 3087, "immagine": 3088, "\u2581successive": 3089, "\u52a0\u5feb": 3090, "\u2581covered": 3091, "\u2581ambassade": 3092, "\u2581apoyar": 3093, "\u2581Castel": 3094, "component": 3095, "ie\u0165": 3096, "\u021biei": 3097, "\u2581gevoel": 3098, "\u2581febreiro": 3099, "\u2581qu\u00e9b\u00e9co": 3100, "\u00eft": 3101, "\u2581brasil": 3102, "\ub808\uc774": 3103, "\u2581\u043d\u0430\u043f\u0438\u0441\u0430": 3104, "\u2581du\u017ca": 3105, "\u2581azioni": 3106, "\u2581\ud655\ub300": 3107, "\u95a5": 3108, "\u2581art\u00edstico": 3109, "\u8868\u9762": 3110, "\u2581gi": 3111, "\ub5bb": 3112, "\u2581nare": 3113, "\u2581leggere": 3114, "\u6e26": 3115, "\u2581ilgis": 3116, "W\u0142ad": 3117, "\u6642\u671f": 3118, "\u2581\u0412\u043b\u0430\u0434\u0438\u043c\u0438\u0440\u0430": 3119, "\u2581torcida": 3120, "oksi": 3121, "\u2581sexta": 3122, "\u2581following": 3123, "\u2581sood": 3124, "\u00e1le": 3125, "\u2581hyd": 3126, "\u2581Gene": 3127, "\u2581vapor": 3128, "\u2581reservado": 3129, "\u03bb\u03c0": 3130, "\u3068\u3044\u3046": 3131, "\u2581chromos": 3132, "\u0144": 3133, "\u2581escultura": 3134, "\u0433\u0438\u044f": 3135, "\u0432\u0430\u0440": 3136, "\u4e3b\u5f35": 3137, "\u2581escort": 3138, "leist": 3139, "\u2581\u0432\u0440\u0435\u043c\u0435\u043d\u0435\u043c": 3140, "\u2581Robert": 3141, "\u2581Estes": 3142, "itra": 3143, "in\u0101ts": 3144, "ap\u00e4ev": 3145, "\u10d5": 3146, "apr\u00e8s": 3147, "\u2581feminin": 3148, "\u2581\u0301s": 3149, "\uc298": 3150, "\u043c\u0435\u0442\u0438": 3151, "origin": 3152, "\u6467": 3153, "itario": 3154, "\u2581szab\u00e1ly": 3155, "straling": 3156, "\u2581nyn\u00ed": 3157, "\u0131larak": 3158, "\u2581maneiras": 3159, "agog": 3160, "\u2581\u062a\u0641": 3161, "\u7a81\u51fa": 3162, "\u904a\u6232": 3163, "\u013e\u00fa": 3164, "\u2581Ahmet": 3165, "\u2581drev": 3166, "\u2581processed": 3167, "ickim": 3168, "iky": 3169, "\u2581Geb\u00e4": 3170, "iedi": 3171, "\u2581rozs": 3172, "\uc548\ub9c8": 3173, "teni": 3174, "HS": 3175, "\u2581dilig": 3176, "obachten": 3177, "\u2581\u0431\u043b\u043e\u043a\u0430": 3178, "\u2581trotzdem": 3179, "\u2581remarqu": 3180, "\u627f": 3181, "\u064a\u0633\u0629": 3182, "\u2581reserved": 3183, "\u2581\u092e\u0939": 3184, "\u2581voisins": 3185, "\u2581volks": 3186, "\u2581g\u00fcnd": 3187, "\u2581ni\u0161ta": 3188, "\u2581\u0438\u0437\u0431\u0430": 3189, "Bij": 3190, "\u2581Tribune": 3191, "ast\u0101": 3192, "tryk": 3193, "\u2581yorum": 3194, "rest": 3195, "\u00edfic": 3196, "\u2581popula\u00e7\u00e3o": 3197, "\u00fcm\u00fc": 3198, "\u2581liberty": 3199, "iem": 3200, "\u2581Harry": 3201, "\u0434\u0438\u0439": 3202, "\u2581ester": 3203, "\u2581nemmeno": 3204, "agus": 3205, "\u2581schade": 3206, "\u2581>": 3207, "\u03b3\u03bf\u03c5\u03bd": 3208, "\u2581silloin": 3209, "vle": 3210, "\u2581properly": 3211, "\u0628\u0631\u0627\u064a\u0631": 3212, "\u2581r\u00ed": 3213, "\u2581\uc874\uc7ac": 3214, "\u2581beeinflusst": 3215, "\u2581Beren": 3216, "\u2581sher": 3217, "\u2581cum": 3218, "ecie\u017c": 3219, "\u2581utem": 3220, "\u0441\u0442\u0440\u0430\u043a\u0442": 3221, "\u0446\u0456\u044e": 3222, "\u2581testimoni": 3223, "celand": 3224, "\u0432\u0430\u043c": 3225, "\u2581pursue": 3226, "\u2581\u03c8": 3227, "\u2581Gele": 3228, "\u2581earthqu": 3229, "\u0647\u064a\u0631": 3230, "\u016btu": 3231, "\u03c0\u03bf\u03c2": 3232, "ienie": 3233, "EN": 3234, "\u2581pr\u00e9cision": 3235, "\u2581B\u00f6yle": 3236, "\u2581dust": 3237, "versammlung": 3238, "mannschaft": 3239, "produ": 3240, "Leave": 3241, "\u010dine": 3242, "\u2581Agen": 3243, "ultur": 3244, "\u2581enero": 3245, "\u2581kultural": 3246, "\u2581aix\u00f2": 3247, "\u2581Jeremy": 3248, "\u58a8\u897f": 3249, "ston": 3250, "\u2581vod": 3251, "\u2581Physics": 3252, "\u2581nourriture": 3253, "\u2581Begin": 3254, "ovi\u0107": 3255, "\u2581\u043d\u044b\u043d\u0435": 3256, "\u2581awful": 3257, "ar\u00f3w": 3258, "\u7684\u91cd\u8981": 3259, "icule": 3260, "\u2581njima": 3261, "\u0942\u0939": 3262, "\u0915\u094d\u0938": 3263, "\u2581partout": 3264, "\u2581molek": 3265, "\u2581gro\u00df": 3266, "\u2581Federal": 3267, "\u30b6": 3268, "rojekt": 3269, "\u03c1\u03b7\u03c3\u03b7": 3270, "\u03c3\u03b5\u03c9\u03bd": 3271, "orste": 3272, "\u2581vremena": 3273, "\u2581\u03be\u03b1\u03bd\u03b1": 3274, "\u2581odprav": 3275, "qvist": 3276, "ielleicht": 3277, "\u0440\u0435\u043d\u044b": 3278, "\u3068\u601d\u3044\u307e\u3059": 3279, "\u2581unsuccessful": 3280, "\u2581\u0625\u0644\u064a\u0647\u0627": 3281, "\u2581wydarzenia": 3282, "\u73b0\u4ee3": 3283, "\u2581\u043a\u0430\u0436\u0435": 3284, "\u2581Tom\u00e1\u0161": 3285, "\u2581\u03b3\u03b9\u03b1": 3286, "\u2581riman": 3287, "\u2581i": 3288, "\u2581Demokratie": 3289, "ige": 3290, "\u2581guardia": 3291, "\u2581\u0641\u0644": 3292, "\u2581Have": 3293, "ulent": 3294, "\u0939\u0947": 3295, "\u2581carried": 3296, "bat": 3297, "\u2581h\u00e4sti": 3298, "\u2581oceni": 3299, "\u03c4\u03ad\u03c2": 3300, "\u2581\ub530\ub77c\uc11c": 3301, "\u2581\u03bb\u03b5\u03c0": 3302, "\u2581injected": 3303, "\u2581\u0445\u043e\u0447\u0435\u0442\u0441\u044f": 3304, "\u2581Parsons": 3305, "\u2581\u0441\u0442\u0440\u043e": 3306, "\uc9d0": 3307, "igkeits": 3308, "\u2581\u0412\u0435\u043b\u0438\u043a\u043e\u0431\u0440\u0438\u0442\u0430": 3309, "\u2581Divis": 3310, "\u2581\u0430\u0432\u0441\u0442": 3311, "zorg": 3312, "\u2581administrative": 3313, "\u2581Environmental": 3314, "\u9084\u662f": 3315, "\u2581Phoenix": 3316, "\u535c": 3317, "\u2581djeteta": 3318, "\u2581Jaros": 3319, "\u2581okre\u015bl": 3320, "\u2581traduzione": 3321, "optic": 3322, "wski": 3323, "\u2581mokykl\u0105": 3324, "\u2581vrij": 3325, "\u2581Kosovo": 3326, "ekta": 3327, "ollu": 3328, "\u2581\uc18c": 3329, "Bern": 3330, "\u2581lopen": 3331, "\u4f2f\u7279": 3332, "iooni": 3333, "\u2581vzd": 3334, "\u0446\u0456\u0439\u043d\u0456": 3335, "phase": 3336, "\u2581\u0442\u0432\u043e": 3337, "\u2581moza": 3338, "\u2581Dak": 3339, "\u2581\u043b\u0438\u0448\u044c": 3340, "\u2581correlated": 3341, "\u0442\u0438\u0437\u0430": 3342, "\u2581acetylcholine": 3343, "\u2581inklu\u017c": 3344, "\u2581jidd": 3345, "coli": 3346, "\u2581daraufhin": 3347, "leb": 3348, "\u2581MC": 3349, "\u5e79": 3350, "\u2581svolge": 3351, "\u2581\ucc3e\uc544": 3352, "\u2581m\u00f5is": 3353, "\u2581Ausdruck": 3354, "\u2581apertura": 3355, "\u2581bate": 3356, "oubtedly": 3357, "\u2581categoria": 3358, "\u2581solcher": 3359, "\u2581Antarkt": 3360, "\u30c3\u30af\u30b9": 3361, "i\u00dfe": 3362, "\u2581Miriam": 3363, "nPas": 3364, "\u2581epis\u00f3dios": 3365, "\u2581ust": 3366, "gekomen": 3367, "ckie": 3368, "\u72a7": 3369, "ialit\u00e0": 3370, "\u2581Swiss": 3371, "\u2581\u0644\u0635": 3372, "xton": 3373, "\u2581coluna": 3374, "light": 3375, "ugas": 3376, "cieli": 3377, "\u2581\u0442\u0440\u0443\u0434\u043d\u043e": 3378, "\u6a90": 3379, "\u2581pann": 3380, "\u2581jazy": 3381, "\u2581delitos": 3382, "\ud329": 3383, "versicherung": 3384, "\u2581spo\u015br\u00f3d": 3385, "\u2581decom": 3386, "\u5916\u90e8": 3387, "\u2581\u0928\u093f\u0930\u094d\u0923": 3388, "\u2581Interessen": 3389, "aient": 3390, "\u2581medit": 3391, "ots": 3392, "tych": 3393, "\u2581Teleg": 3394, "\u00e1lna": 3395, "\u017edy": 3396, "\u2581\u043c\u0435\u0436\u0434\u0443": 3397, "\u2581palco": 3398, "\u2581namely": 3399, "\u30cb\u30e5\u30fc\u30b9": 3400, "\u041d\u0438": 3401, "\u2581fordert": 3402, "\u2581palavras": 3403, "\u2581\u0433\u043e\u0440\u0430": 3404, "\u2581Dial": 3405, "\u2581\u043d\u0435\u0433\u0430": 3406, "\u2581muuten": 3407, "\u8fd1\u3044": 3408, "\u2581sp\u00e4ten": 3409, "\u2581Gian": 3410, "\u2581entrega": 3411, "\u2581\u0644\u062d": 3412, "ublice": 3413, "\u2581apet": 3414, "\u2581genellikle": 3415, "\u2581condicion": 3416, "\u2581r\u00e4": 3417, "\u2581\u0443\u0441\u043b\u043e\u0432\u0438\u044f": 3418, "\u2581consists": 3419, "\u2581geko": 3420, "culas": 3421, "\u2581sunlight": 3422, "S\u00e3o": 3423, "\u2581milho": 3424, "\u2581teme": 3425, "tappen": 3426, "\u2581erilaisia": 3427, "\u2581quant": 3428, "\u30cb\u30e5\u30fc": 3429, "\u60ef": 3430, "terne": 3431, "\u2581Savien": 3432, "adach": 3433, "\u2581compte": 3434, "\u8a0a": 3435, "\u2581t\u00e1rsadal": 3436, "\u2581satisfa\u00e7\u00e3o": 3437, "\u2581urged": 3438, "\u2581\uc218\ud589": 3439, "land\u0131r": 3440, "ithi": 3441, "\u2581\u0437\u0430\u0441\u0442\u043e": 3442, "vorm": 3443, "\u0101des": 3444, "\u2581ura": 3445, "icherung": 3446, "anter": 3447, "\u2581fracas": 3448, "\u2581prolifer": 3449, "\u2581schema": 3450, "\u2581inert": 3451, "\u2581mellom": 3452, "\u2581Parmi": 3453, "\u2581svoju": 3454, "\u2581qualcosa": 3455, "\u2581\u0432\u043e\u0439\u043d\u0435": 3456, "\u2581Harold": 3457, "\u2581candidature": 3458, "kozy": 3459, "\u0445\u0440\u0430": 3460, "\u2581\u0432\u044b\u043d\u0443\u0436\u0434\u0435\u043d": 3461, "\u010d\u00e1st": 3462, "\u2581deti": 3463, "\u2581Paper": 3464, "\u2581\u0434\u0438\u0437\u0430": 3465, "\u2581Ors": 3466, "\u2581edi\u00e7\u00f5es": 3467, "\u2581confl": 3468, "\u2581heute": 3469, "ements": 3470, "\u0131ld\u0131\u011f\u0131": 3471, "\u2581composizione": 3472, "\u2581\u043a\u0438": 3473, "\u2581Kill": 3474, "\u2581medicine": 3475, "\u2581elaboraci\u00f3n": 3476, "\u2581miss": 3477, "\u2581artt": 3478, "\u2581naz\u00fd": 3479, "\u2581sveik": 3480, "\u2581iron": 3481, "ieszka": 3482, "\u0437\u0432\u0430\u043d\u0435": 3483, "\u2581\u0437\u0430\u043f\u0438\u0441\u0430": 3484, "\u0432\u0430\u0432\u0441\u044f": 3485, "\u2581\u043e\u0442\u0437\u044b\u0432\u0430": 3486, "vart": 3487, "\u2581\u039d\u03ad\u03b1": 3488, "\u2581OH": 3489, "\u2581mezzo": 3490, "opol": 3491, "\u2581vecchio": 3492, "\u2581uite": 3493, "\uc7a5\uc73c\ub85c": 3494, "\u2581zbyt": 3495, "onaan": 3496, "\u2581neigh": 3497, "tr\u00e4ge": 3498, "\u2581esot": 3499, "\u2581arvest": 3500, "\u2581Lynd": 3501, "\u2581esteja": 3502, "\u2581\u0130\u015f": 3503, "\u2581\u043f\u0435\u0440\u0435\u043c\u043e": 3504, "\u2581troub": 3505, "\u2581\u0441\u0435\u0432\u0435\u0440": 3506, "\u2581\u0436\u0443\u0440\u043d\u0430\u043b\u0430": 3507, "\u2581About": 3508, "\u2581conect": 3509, "\u2581\u0648\u0632": 3510, "Chat": 3511, "erva": 3512, "\u8ad6\u6587": 3513, "\u043b\u044c\u043d\u0438\u043a\u043e\u0432": 3514, "iety": 3515, "\u092f\u094b\u0917": 3516, "\u2581industria": 3517, "\u546a": 3518, "\u2581seega": 3519, "\u2581m\u00e1te": 3520, "\u2581vyu\u017e\u00edv": 3521, "\u03a1\u039f": 3522, "\u2581Rosji": 3523, "\u2581aandeel": 3524, "\u2581ej\u00e9rcito": 3525, "aliers": 3526, "Ra": 3527, "\u2581Russische": 3528, "\u2581tegenstelling": 3529, "\u2581Erwin": 3530, "\u2581s\u00e4s": 3531, "\u03ad": 3532, "\u2581\u0441\u043a\u0443\u043b\u044c\u043f": 3533, "ickening": 3534, "\u2581d\u00e9m": 3535, "zeugung": 3536, "icen": 3537, "\u2581gekomen": 3538, "anie": 3539, "\u2581ingles": 3540, "\u2581hurtigt": 3541, "\u2581\u6211": 3542, "entlig": 3543, "liko": 3544, "\u2581Kommentar": 3545, "\u2581Fal": 3546, "\u2581overt": 3547, "ogr\u0101": 3548, "\u2581ciddi": 3549, "\u2581elk\u00e9sz": 3550, "\u2581cumpr": 3551, "\u2581prosvjed": 3552, "\u74f6": 3553, "\u6765\u8bf4": 3554, "\u2581jaune": 3555, "\u2581pierwszy": 3556, "\u2581musiikk": 3557, "\u2581\u0441\u043e\u0442\u0440\u0443\u0434\u043d\u0438\u043a\u043e\u0432": 3558, "\u6e10": 3559, "\u0113jiem": 3560, "\u0436\u0435\u043d\u0438\u044f": 3561, "rawy": 3562, "\u6258": 3563, "\u2581Cub": 3564, "\u2581\u0447\u0430\u0441\u0443": 3565, "\u2581profonde": 3566, "\u2581Water": 3567, "\u2581Baltijas": 3568, "\u2581\u0432\u0434": 3569, "\u2581t\u00edp": 3570, "vias": 3571, "\u00e9lica": 3572, "zonym": 3573, "\u660e\u671d": 3574, "\u2581\u0437\u0435": 3575, "message": 3576, "is\u00e9e": 3577, "\u0117ms": 3578, "\u2581Belgische": 3579, "\u2581considerados": 3580, "\u2581hioml\u00e1n": 3581, "\u2581\u0935\u093f\u0927\u093f": 3582, "\u2581\u043a\u043e\u043b\u0438": 3583, "\u2581familiari": 3584, "\u2581\u0432\u0438\u043a\u043e\u0440\u0438\u0441\u0442\u0430\u043d\u043d\u044f": 3585, "\u2581darbus": 3586, "\u2581p\u00f3j": 3587, "\u2581\u0441\u044a\u0432\u0440\u0435\u043c\u0435\u043d": 3588, "\u2581Deep": 3589, "\u2581safety": 3590, "ollow": 3591, "\u2581grava\u00e7\u00e3o": 3592, "\u2581urm": 3593, "\u2581Slo": 3594, "\u2581r\u00e9f": 3595, "\u30e1\u30a4\u30f3": 3596, "\u2581\u0448\u0435\u0441\u0442\u0438": 3597, "\u2581Markt": 3598, "\u2581Molt": 3599, "\u2581sorm": 3600, "\u2581Trata": 3601, "\u3082\u3042\u308b": 3602, "\u2581Niederlage": 3603, "\u2581A\u00e9rea": 3604, "\u2581lavorazione": 3605, "\u2581\u0440\u0435\u0434": 3606, "\u0643\u0629": 3607, "\u306a\u304f": 3608, "\u4e86\u4e00\u4e2a": 3609, "\u2581qu\u00edm": 3610, "\uc8fc\uc758": 3611, "\u2581\u0440\u043e\u0431\u043e": 3612, "barra": 3613, "\u2581calling": 3614, "problemen": 3615, "\u2581odpowiedzial": 3616, "except": 3617, "\u2581contraintes": 3618, "\u2581excelente": 3619, "\u2581speaking": 3620, "\u8299": 3621, "offerta": 3622, "isha": 3623, "\u2581vonden": 3624, "\u2581\u0438\u0437\u044f": 3625, "la\u015ft\u0131r": 3626, "\u2581\u043b\u0438\u043f": 3627, "Qu\u00e9": 3628, "\u2581Acc": 3629, "\u2581Baut": 3630, "\u745e\u5178": 3631, "\u2581columns": 3632, "rightarrow": 3633, "\u6e9d": 3634, "\u00f6rgy": 3635, "\u2581\u0935\u093f\u0926\u0947\u0936": 3636, "\u2581velocidades": 3637, "\u2581poch\u00e1dza": 3638, "\u2581endok": 3639, "\u2581\u0432\u0456\u0434\u043e\u043c\u043e": 3640, "\u2581yard\u0131mc\u0131": 3641, "\u2581verbunden": 3642, "\u00e1d": 3643, "ayar": 3644, "atiques": 3645, "\u2581file": 3646, "\u2581acreditar": 3647, "ritu": 3648, "\u2581forget": 3649, "\u2581hisz": 3650, "igend": 3651, "\u2581Oy": 3652, "zare": 3653, "ypp": 3654, "\u2581Iv\u00e1n": 3655, "\u518d\u6b21": 3656, "\u0131": 3657, "l\u00e4ndern": 3658, "atti": 3659, "\u2581pune": 3660, "\u2581\u0410\u0440\u0445\u0430\u043d": 3661, "\u2581Hydro": 3662, "\u2581seo": 3663, "\u2581toget": 3664, "\u0448\u043d\u044f": 3665, "\u624b": 3666, "\u2581scr\u00ed": 3667, "\u2581verm": 3668, "\u9918": 3669, "\u2581\u00f6nk": 3670, "\u2581Humanos": 3671, "\u5177\u6709": 3672, "\u2581umane": 3673, "\u2581\u00e9tica": 3674, "\u2581rann": 3675, "\u2581corrispondenza": 3676, "\u043b\u044c\u043d\u043e\u0441\u0442\u0438": 3677, "\u2581Ang": 3678, "rary": 3679, "\u2581Etr": 3680, "\u2581\u0434\u043d\u0435\u043c": 3681, "\u2581Roku": 3682, "\u2581dalyk": 3683, "\u2581Psi": 3684, "rija": 3685, "off": 3686, "\u00e9gias": 3687, "\u2581Honduras": 3688, "durch": 3689, "\u2581\u0938\u0926\u0938\u094d\u092f": 3690, "wegs": 3691, "\u2581\u043e\u0441\u0432\u0435\u043d": 3692, "imir": 3693, "\u2581objedn": 3694, "\u2581Bianca": 3695, "\u2581el\u0151re": 3696, "\u2581\u043c\u043d\u043e\u0436\u0435": 3697, "\u3082": 3698, "\u2581\ub2f4\ub2f9": 3699, "\u2581\u043f\u0440\u0435\u0434\u0441\u0442\u0430": 3700, "();": 3701, "\u2581advies": 3702, "\u2581vajad": 3703, "\u2581struktura": 3704, "\u2581giornale": 3705, "iks": 3706, "\u3067\u3082": 3707, "\u2581\u0641\u062a": 3708, "\u2581Infant": 3709, "\u2581perioad\u0103": 3710, "\u2581\u015bwiat\u0142o": 3711, "\u2581\u043d\u0435\u0438\u0437\u0432\u0435\u0441\u0442": 3712, "\u9589": 3713, "\u2581begynd": 3714, "\u2581moneta": 3715, "\u2581Wave": 3716, "\u2581d\u00e9j\u00e0": 3717, "\u2581\u041a\u0443\u0440": 3718, "\u2581koszy": 3719, "itor": 3720, "\u2581dok": 3721, "\u2581\u0447\u0443\u0434\u043e": 3722, "\u2581entsteht": 3723, "ruption": 3724, "\u2581simet": 3725, "\u2581Herald": 3726, "\u2581vivos": 3727, "\u2581przebud": 3728, "ignan": 3729, "\u2581eindeut": 3730, "\u2581Schult": 3731, "\u2581never": 3732, "\u2581openly": 3733, "\u2581cel\u00f3w": 3734, "\u6b64\u5916": 3735, "\u2581p\u0101": 3736, "\u2581net": 3737, "\u2581wywo\u0142": 3738, "\u2581efectos": 3739, "\u501f\u308a": 3740, "\u2581offer": 3741, "\u2581Erich": 3742, "ifications": 3743, "nO": 3744, "abd": 3745, "\u2581\u0441\u0442\u043e\u043b\u044c": 3746, "chten": 3747, "\u30b8\u30fc": 3748, "\u201d).": 3749, "\u57ce\u533a": 3750, "\u043d\u0456\u0441\u0442\u044e": 3751, "\u2581\u043c\u043d\u043e\u0433\u0438\u0445": 3752, "itores": 3753, "\u2581Tru": 3754, "\u2581patrim\u00f4nio": 3755, "\u2581zero": 3756, "\u2581Leadership": 3757, "\u2581\u0434\u0435\u043a": 3758, "\u2581K\u0131z": 3759, "\u2581tonen": 3760, "\ub410\ub2e4": 3761, "\u98db\u6a5f": 3762, "\u2581\uae30\ud0c0": 3763, "\u2581presidentti": 3764, "\u2581vieg": 3765, "\u2581formata": 3766, "\u2581\u0623\u062d": 3767, "\u0446\u0438\u0435\u0439": 3768, "\u2581canadiense": 3769, "\u2581avulla": 3770, "\u2581Fusion": 3771, "acic": 3772, "\u2581IoT": 3773, "\u2581extensi\u00f3n": 3774, "cost": 3775, "\u2581Nowej": 3776, "\u2581story": 3777, "\u0902\u0926\u0930": 3778, "\u2581r\u00e9action": 3779, "\u8fd8\u6709": 3780, "\u2581ovviamente": 3781, "alleng": 3782, "\u00e9nagement": 3783, "\u2581\u0434\u0438\u043d\u0430\u0441\u0442\u0438\u0438": 3784, "koz": 3785, "\u2581mesi": 3786, "\u2581\u010di\u0161": 3787, "\u2581attacks": 3788, "\u2581pomer": 3789, "\u2581\u0428\u0432\u0435\u0439": 3790, "\u2581c\u00e2te": 3791, "r\u00e1id": 3792, "Oscar": 3793, "il\u00ed": 3794, "\u2581\u0909\u0926\u094d\u0926\u0947\u0936\u094d\u092f": 3795, "\u2581Cl\u00e1": 3796, "\u1e2a": 3797, "\u2581aposta": 3798, "mios": 3799, "\u2581Aire": 3800, "\u78f7": 3801, "\u742a": 3802, "czny": 3803, "\u2581tiesiog": 3804, "\u53e4": 3805, "Vis": 3806, "+\\": 3807, "\u2581Arag": 3808, "\u2581respecto": 3809, "\u6298": 3810, "\u2581mie\u015bcie": 3811, "rief": 3812, "\u6dc0": 3813, "\u2581pr\u00e9cis\u00e9ment": 3814, "\u2581vaim": 3815, "\u2581pessoas": 3816, "\u2581\u03be\u03ad\u03c1": 3817, "\u2581protsess": 3818, "IDEO": 3819, "\u2581magia": 3820, "\u043d\u043e\u043c": 3821, "peras": 3822, "\u2581\u043a\u043e\u0442": 3823, "\u2581erg": 3824, "\u2581\u043f\u043e\u044f\u0441": 3825, "\u4f60\u7684": 3826, "\u2581candidata": 3827, "nBericht": 3828, "\u043b\u044c\u0441\u043a\u043e\u0433\u043e": 3829, "\u2581\u0938\u0941\u0930\u0915\u094d\u0937\u093e": 3830, "cito": 3831, "\u2581Boj": 3832, "\u2581werknemers": 3833, "\u2581vl": 3834, "\u2581Geoff": 3835, "\u2581supper": 3836, "tieni": 3837, "\u2581Nederlands": 3838, "\u2581\u043a\u043e\u043e\u0440\u0434\u0438\u043d\u0430": 3839, "\u2581bewust": 3840, "hodox": 3841, "\u2581policies": 3842, "\u4e61\u6751": 3843, "\u2581drink": 3844, "\u2581katere": 3845, "\u0151sz": 3846, "\u7dad\u6301": 3847, "\u2581encompasses": 3848, "\u2581vehicle": 3849, "\u2581Mikro": 3850, "kering": 3851, "\u041c\u0430": 3852, "\u2581saj": 3853, "\u67d0": 3854, "\u6708\u521d": 3855, "\u7940": 3856, "\u2581kompleks": 3857, "\u2581Circle": 3858, "\u2581\u043f\u043e\u0434\u0430\u0440": 3859, "\u2581\u0442\u043e\u0432\u0430": 3860, "l\u00e4ndischen": 3861, "\u0436\u043d\u0438": 3862, "\u2581kaka": 3863, "rach": 3864, "\u0645": 3865, "\u2581\u0916\u092c\u0930": 3866, "\u2581kh": 3867, "pron": 3868, "\u2581ksi\u0119\u017cy": 3869, "\u2581\u0433\u0435\u0440\u043e\u044f": 3870, "\u2581Brazilia": 3871, "\u2581trase": 3872, "\u2581inicia": 3873, "\u2228": 3874, "\u2581\u0426\u041a": 3875, "\u2581\u039a\u03b9": 3876, "\u2581vag": 3877, "AFP": 3878, "\u2581kapita": 3879, "czasem": 3880, "nat": 3881, "\u2581reu\u0219": 3882, "\u2581pessoa": 3883, "\u2581vissa": 3884, "supervised": 3885, "\u2581fanns": 3886, "\u2581getir": 3887, "\u2581boost": 3888, "\u2581einer": 3889, "vi": 3890, "\u2581artistico": 3891, "\u8d85\u8fc7": 3892, "alion": 3893, "\u2581Galego": 3894, "\u2581eingel": 3895, "\u2581nowej": 3896, "\u2581function": 3897, "hoon": 3898, "\ub780\ub4dc": 3899, "\u0161kio": 3900, "\u4e2d\u592e": 3901, "\u2581decyzji": 3902, "\u2581asisten": 3903, "\u2581Koning": 3904, "ildi": 3905, "\u03af\u03c9\u03bc\u03b1": 3906, "\u52a8\u7269": 3907, "\u2581Kenneth": 3908, "\u2581\u00faprav": 3909, "\u2581antique": 3910, "\u2581bottle": 3911, "\u2581controversial": 3912, "\u2581v\u012b": 3913, "\u2581Finance": 3914, "\u2581lask": 3915, "\u2581contaba": 3916, "\u2581rele": 3917, "uu": 3918, "\u305d\u308c\u304c": 3919, "\u2581Markus": 3920, "osob": 3921, "\u2581znati": 3922, "TML": 3923, "\u2581Geist": 3924, "\u2581infarction": 3925, "\u00e4tzen": 3926, "\u2581ta\u0127t": 3927, "\u2581wirtschaft": 3928, "\u2581publics": 3929, "\u2581Qual": 3930, "\u2581Schweiz": 3931, "otts\u00e1g": 3932, "\u2581ampl": 3933, "\u2581\u043e\u0442\u043d\u043e\u0448\u0435\u043d\u0438\u044f": 3934, "\u2581tratados": 3935, "\u2581vouloir": 3936, "allo": 3937, "ang": 3938, "\u2581Kir": 3939, "\u2581permette": 3940, "\u0101ku": 3941, "unikazzjoni": 3942, "\u2581\u0431\u0440\u0438\u0433\u0430": 3943, "\u2581efforts": 3944, "ecimento": 3945, "\u2581shampla": 3946, "isky": 3947, "\u8815": 3948, "\u2581zna\u010dky": 3949, "\u2581olmas\u0131": 3950, "\u2581\u0412\u0430\u0440\u0448\u0430": 3951, "\u2581Wirk": 3952, "\u2581\u0442\u0440\u0435\u0431\u0443\u0435\u0442": 3953, "\u2581\u041a\u043b\u0430": 3954, "\u2581erinevad": 3955, "polo": 3956, "\u2581Filipinas": 3957, "\u2581stammer": 3958, "ection": 3959, "\u8151": 3960, "\u2581Lep": 3961, "\u2581decyzj\u0119": 3962, "ikata": 3963, "icioso": 3964, "\u2581gdje": 3965, "layan": 3966, "\u792b": 3967, "\u0447\u0443\u0454": 3968, "\u3072\u3068\u3064": 3969, "i\u0105": 3970, "\u2581socied": 3971, "leurs": 3972, "\u0101": 3973, "\u0435\u043c\u044b\u043c": 3974, "rodzenia": 3975, "versorgung": 3976, "\u2581refinement": 3977, "\u2581\u0928\u0940\u0924\u093f": 3978, "Sam": 3979, "\u2581Pel": 3980, "\u2581circul": 3981, "\u2581\u043f\u043b\u043e\u0434\u043e": 3982, "\u0438\u0441\u0442\u043e\u0440\u0438": 3983, "\u2581Grow": 3984, "\u2581polt": 3985, "\u2581minutes": 3986, "\u2581riebal\u0173": 3987, "\u2581\u0423": 3988, "\u2581desider": 3989, "TU": 3990, "logen": 3991, "\u2581Wsp\u00f3l": 3992, "\u2581Zwi\u0105": 3993, "kay": 3994, "\u2581inhibits": 3995, "\u2581freg": 3996, "altaine": 3997, "\u2581s\u00f6yl": 3998, "\u2581\u0441\u043b\u0443\u0436\u0431\u044b": 3999, "olarit\u00e0": 4000, "\u2581incend": 4001, "&\\": 4002, "\u9435": 4003, "\u2581chamado": 4004, "\u2581capacit\u00e0": 4005, "\u2581\u0431\u043e\u0440\u044c": 4006, "\u2581\u0442\u0438\u043c": 4007, "\u2581pisma": 4008, "\u2581lengths": 4009, "\u2581competencia": 4010, "izado": 4011, "\u2581Eur\u00f3p": 4012, "igingen": 4013, "\u2581financia": 4014, "\u5931\u6557": 4015, "\u2581razvij": 4016, "disc": 4017, "\u9428": 4018, "\u2581Piper": 4019, "\u2581rectum": 4020, "\u6e2d": 4021, "\u2581Noruega": 4022, "\u5a7f": 4023, "\u7ebf\u8def": 4024, "\u6d88\u9632": 4025, "\u2581cuad": 4026, "\u2581yay": 4027, "\u2581Brah": 4028, "\u2581\u0441\u0430\u043c\u043e\u0441\u0442\u043e\u044f": 4029, "br": 4030, "\u2581odnot": 4031, "\u2581anex": 4032, "\u30b4": 4033, "ieno": 4034, "\u2581mesmos": 4035, "rous": 4036, "Phil": 4037, "\u00e1logos": 4038, "\u2581Cit\u00e9": 4039, "\u2581eventuali": 4040, "\u3067\u304d\u307e\u3059": 4041, "laimed": 4042, "astanza": 4043, "\u2581Welt": 4044, "industria": 4045, "\u0438\u043b\u0438": 4046, "\u2581Wake": 4047, "\u2581\u03b5\u03c6\u03b1\u03c1": 4048, "\u2581\u041f\u043b\u0430": 4049, "ourg": 4050, "\u2581djelat": 4051, "\u7b77": 4052, "\u2581\u0935\u0930\u094d\u0937\u094b\u0902": 4053, "\u3055\u3089": 4054, "\u2581v\u0161": 4055, "\u537f": 4056, "\u2581aureus": 4057, "\u2581propagation": 4058, "\u2581\u092e\u0902\u0926": 4059, "\u2581jedan": 4060, "\u2581\u0421\u0430\u0440\u0430": 4061, "\u0433\u043e\u0440\u043e\u0434": 4062, "\u2581\u0443\u043f\u0440\u0430\u0437\u0434": 4063, "<0xE5>": 4064, "sledku": 4065, "\u2581Charak": 4066, "\u2581injust": 4067, "\u2581calquera": 4068, "rifter": 4069, "\u2581zapob": 4070, "\u983b": 4071, "\u2581tonnes": 4072, "\u2581abogado": 4073, "\u2581trag": 4074, "arya": 4075, "\u2581\u043c\u0430\u0442\u0435\u0440\u0438\u0430\u043b\u0438": 4076, "fries": 4077, "ersi": 4078, "oters": 4079, "pine": 4080, "hei": 4081, "reu": 4082, "\u2581rakstur": 4083, "ajd": 4084, "\u2581\u20ac\\": 4085, "ikts": 4086, "\u2581\u0421\u043a\u043e\u0440\u043e": 4087, "\u2581r\u00e9formes": 4088, "\u10d9": 4089, "\ub974\uac8c": 4090, "\u2581hoida": 4091, "\u2581terrorism": 4092, "\u2581M\u00fcnster": 4093, "\u2581dificuldades": 4094, "\u0131m\u0131": 4095, "\u0440\u043e\u044e": 4096, "\u2581\u7533\u535a": 4097, "\u2581prilagod": 4098, "\u2581vala": 4099, "cular": 4100, "\u2581begren": 4101, "\u2581maf": 4102, "\u2581fees": 4103, "\u2581spacetime": 4104, "\u2581ozd": 4105, "Sieg": 4106, "\u2581raditi": 4107, "\u2581\uadf8": 4108, "\u6210\u4e86": 4109, "aj\u0105ca": 4110, "\u2581quot": 4111, "Bund": 4112, "\u2581kuuluvat": 4113, "\u2581\u0432\u0440\u0435\u043c\u0435\u043d\u0430": 4114, "\u2581Aven": 4115, "\u2581Kaisers": 4116, "\u043c\u0438\u044f": 4117, "\u2581D\u00e8s": 4118, "\u2581\u0441\u043e\u043a\u0440\u0430": 4119, "\u2581oferece": 4120, "\u2581\ud601": 4121, "\u2581rende": 4122, "\u2581decyz": 4123, "\u2581kurt": 4124, "\u2581roupa": 4125, "\u2581\u0420\u043e\u0441\u0441\u0438\u0439": 4126, "\u2581d\u00f6n": 4127, "\u2581\u0627\u0644\u0645\u062d\u0644\u064a\u0629": 4128, "\u2581Spain": 4129, "\u2581telefonu": 4130, "\u2581Hern\u00e1ndez": 4131, "\u2581nombrado": 4132, "\u2581maal": 4133, "\u2581\u0438\u0437\u0433\u043e\u0442\u043e\u0432\u043b\u0435\u043d\u0438\u044f": 4134, "\u2581proportional": 4135, "\u2581quantit\u00e0": 4136, "\u2581rappro": 4137, "geme": 4138, "\u2581koje": 4139, "\u0437\u043a\u0430": 4140, "\u2581focal": 4141, "etni": 4142, "\u2581suspect": 4143, "\u2581Cou": 4144, "\u2581Feder": 4145, "zav": 4146, "ycja": 4147, "\u2581\u0915\u093e\u092e": 4148, "\u2581\u03c0\u03b1\u03c1\u03b1\u03c0": 4149, "\u03c1\u03b7\u03bc\u03b1": 4150, "\u8bca": 4151, "paus": 4152, "\u2581part\u00edculas": 4153, "\u2581\u0448\u043e": 4154, "\u2581beig": 4155, "\u2581remi": 4156, "\u4f7f": 4157, "\u0417\u0435": 4158, "\u5e76\u4e0d": 4159, "\u2581programming": 4160, "\u2581d\u00e9bit": 4161, "\u2581\u0915\u0939": 4162, "\u0635\u0627\u0628\u0629": 4163, "\u2581contains": 4164, "iters": 4165, "\u2581emberek": 4166, "\u0101kaj\u0101": 4167, "ektiv": 4168, "\u2581Colombo": 4169, "leave": 4170, "\u2581Nieders": 4171, "\u0902\u0917\u0947": 4172, "\u2581uk": 4173, "\u2581f\u00f3ra": 4174, "\u2581onderwijs": 4175, "\u2581corretto": 4176, "\u2581izsl": 4177, "ubile": 4178, "\u2581slogan": 4179, "\u2581ind\u00e9pend": 4180, "\u2581verdade": 4181, "\u03c0\u03bf\u03bd": 4182, "\u2581iTunes": 4183, "\u092d\u093e\u0937\u093e": 4184, "jelen": 4185, "jaci": 4186, "ppy": 4187, "\u2581HC": 4188, "\u2581Parece": 4189, "\u2581K\u00f6lner": 4190, "\u2581\u00e4u\u00df": 4191, "ia\u0142y": 4192, "\u2581Srb": 4193, "\u03b9\u03ba\u03bf": 4194, "\uacbc\ub2e4": 4195, "\u2581obr\u0119bie": 4196, "\u9a97": 4197, "\u2581depender": 4198, "\u2581Castello": 4199, "\u2581pozri": 4200, "\u2581espera": 4201, "deki": 4202, "\u2581vi": 4203, "\u2581\u0441\u043e\u0440": 4204, "\u2581sinon": 4205, "man\u0131": 4206, "\u2581zagran": 4207, "\u8c2d": 4208, "\u7bb1": 4209, "\u2581AB": 4210, "\u2581Kaczy": 4211, "uksi": 4212, "\u2581eden": 4213, "\u2581selfish": 4214, "izmente": 4215, "\u5341\u5b57": 4216, "\u2581seni\u016bn": 4217, "ut\u00e1n": 4218, "ovek": 4219, "\ub128": 4220, "\u5b66\u4e60": 4221, "\u2581domains": 4222, "\u2581lecz": 4223, "ali\u0107": 4224, "\u2581R\u00e9g": 4225, "\u2581arrondissement": 4226, "\u2581\u043a\u043e\u0436\u043d\u043e\u0433\u043e": 4227, "PH": 4228, "\u2581aqu": 4229, "\u2581personnel": 4230, "gezet": 4231, "\u2581\u0928\u094d\u092f\u093e\u092f\u093e": 4232, ",[": 4233, "mathrm": 4234, "ctica": 4235, "\u2581vite": 4236, "\u2581Fons": 4237, "\u00e8ques": 4238, "\u2581commanded": 4239, "\u2581relatie": 4240, "\u2581re\u00e7oit": 4241, "\u2581Lut": 4242, "otra": 4243, "\u2581Zobacz": 4244, "\u2581profund": 4245, "\u0433\u0438\u043f": 4246, "elfde": 4247, "\u2581Belf": 4248, "\u4e9a": 4249, "\u2581K\u00f6": 4250, "\u2581extent": 4251, "\u043a\u043e\u0432\u044b\u0435": 4252, "\u2581Industry": 4253, "\u30b7\u30fc": 4254, "\u2581Wort": 4255, "\"\"": 4256, "\u2581contam": 4257, "\u2581Music": 4258, "jor": 4259, "\u307e\u3067\u306b": 4260, "\u2581bisog": 4261, "\u5678": 4262, "\u2581Kut": 4263, "\u2581\u0441\u043e\u043f\u0435\u0440": 4264, "\uc0ac\ub97c": 4265, "\u2581Caterina": 4266, "\u2581ender": 4267, "\u2581ritual": 4268, "manis": 4269, "\u2581\u0430\u0440\u0433\u0443": 4270, "\u2581\u0441\u0431\u043e\u0440\u043d\u043e\u0439": 4271, "\u2581practicing": 4272, "\u2581Farn": 4273, "Comparison": 4274, "\u2581descobrir": 4275, "\u2581zmniejsza": 4276, "\u03c3\u03bf\u03c5\u03bc\u03b5": 4277, "\u2581dentre": 4278, "ocytosis": 4279, "\u2581\u0432\u043e\u0435\u043d\u043d\u044b\u0445": 4280, "\u2581ayr\u0131": 4281, "bos": 4282, "\u2581\u0447\u0435\u0441\u0442\u044c": 4283, "\u00e1n\u00e1l": 4284, "\u2581b\u0151": 4285, "\u2581transmission": 4286, "\u2581mimo": 4287, "\u010dn\u00fa": 4288, "endt": 4289, "\u2581Court": 4290, "\u2581push": 4291, "\u2581canc": 4292, "\u2581Venezia": 4293, "\u2581kn\u00ed": 4294, "\u5df2": 4295, "\u2581sok": 4296, "\u2581escond": 4297, "\u09c1": 4298, "\u2581\u0446\u0438\u043a\u043b": 4299, "\u2581Mb": 4300, "\u0440\u043e\u0438": 4301, "\u2581apoi": 4302, "|\\": 4303, "\u2581manifestazione": 4304, "\u2581serp": 4305, "\u2581wpis": 4306, "load": 4307, "\u2581Herzen": 4308, "\u5389": 4309, "ilis": 4310, "in\u00e9": 4311, "\u2581carnaval": 4312, "\u2581\uc774\ub807\uac8c": 4313, "\u2581virkelig": 4314, "\u2581close": 4315, "\u2581vez": 4316, "\u2581aquello": 4317, "\u2581cleared": 4318, "\u2581anbefal": 4319, "\u2581Welles": 4320, "\u2581raramente": 4321, "\u2581poplat": 4322, "Ca": 4323, "\u8ced": 4324, "\u2581branches": 4325, "\u2581fulfilled": 4326, "\u2581L\u00f6wen": 4327, "\u2581saav": 4328, "\u8e87": 4329, "\u0432\u0443": 4330, "\u2581lille": 4331, "\u2581sv\u00e6rt": 4332, "\u2581sprawdzi": 4333, "\u2581automatisk": 4334, "\u5341\u4e8c": 4335, "\u8377\u862d": 4336, "\u2581operativo": 4337, "\u2581\u012fk": 4338, "\u79bb\u5f00": 4339, "\u2581armi": 4340, "kah": 4341, "\u2581Ia": 4342, "\uc810": 4343, "leyen": 4344, "\u2581Pl\u00e4ne": 4345, "orada": 4346, "\u807f": 4347, "\u2581antagonists": 4348, "\u2581approv": 4349, "\u2581ufficialmente": 4350, "iala": 4351, "\u2581\u043f\u0440\u043e\u0435": 4352, "nAut": 4353, "\u2581abh\u00e4ngig": 4354, "kov": 4355, "\u2581\u043f\u043e\u0441\u043b\u0430": 4356, "\u2581eesm\u00e4rk": 4357, "\u53d1\u7535": 4358, "ajam": 4359, "\u2581Well": 4360, "\u2581\u0413\u0435\u043d": 4361, "\u2581backbone": 4362, "\u2581d\u00e9faut": 4363, "\u2581cel\u00e9ho": 4364, "\u2581poss\u00edvel": 4365, "\u2581\u0441\u0435\u0440\u044c\u0435": 4366, "\uc2ad": 4367, "\u2581diamet": 4368, "odend": 4369, "\u2581miej": 4370, "\u2581\u0160aj\u0101": 4371, "\u2581Dess": 4372, "energia": 4373, "\u2581breeding": 4374, "\u2581petici\u00f3n": 4375, "\u2581k\u00f6zt": 4376, "\u2581\u0926\u0930\u094d": 4377, "\u2581cyber": 4378, "\u2581MAN": 4379, "\u7b26": 4380, "\u2581s\u0105sied": 4381, "abile": 4382, "\u2581Cando": 4383, "\u2581voleva": 4384, "oga": 4385, "\u2581Giorgio": 4386, "\u2581NBC": 4387, "\u2581subl": 4388, "\u0142em": 4389, "\u2581Selbst": 4390, "Freder": 4391, "\u2581Abschluss": 4392, "\u0580": 4393, "\u80a0": 4394, "\u2581l\u00edmite": 4395, "\u2581al\u00e1": 4396, "adress": 4397, "\u2581\u0627\u0644\u0644\u0628\u0646": 4398, "\u2581\u0936\u0941\u0930": 4399, "\u2581w\u00e4chst": 4400, "\u2581\u0420\u0430": 4401, "olli": 4402, "\u2581pr\u016f": 4403, "\u2581\u0440\u0435\u0431\u0435\u043d": 4404, "\u2581\u00e4m": 4405, "\u2581Algorith": 4406, "likke": 4407, "\u2581wysokiej": 4408, "_{\\": 4409, "\u2581Macken": 4410, "\u3057\u3070": 4411, "\u2581\u00c9mile": 4412, "\u2581Marok": 4413, "\u2581\u043f\u0440\u0435\u043f\u0430\u0440\u0430\u0442\u044b": 4414, "\u2581reference": 4415, "\u2581\u0418\u043d\u0441\u0442\u0438\u0442\u0443": 4416, "\u6218\u5f79": 4417, "take": 4418, "\u4e8b\u60c5": 4419, "\u2581gl\u00fccklich": 4420, "\u56a3": 4421, "zten": 4422, "ettua": 4423, "\u2581pr\u00edp": 4424, "\u092a\u0930": 4425, "\u2581restauro": 4426, "r\u0101": 4427, "\u0441\u0442\u0432\u0435\u043d\u043d\u043e\u0441\u0442\u0438": 4428, "\u2581\u0905\u0927\u094d\u092f": 4429, "\u2581minimal": 4430, "\u2581\u0623\u0648": 4431, "\u2581Corpus": 4432, "\u2581kuru": 4433, "\u2581Lions": 4434, "\u2581\u00d6ster": 4435, "\u5b89": 4436, "eser": 4437, "elve": 4438, "\u2581sperm": 4439, "\u2581Altre": 4440, "\u2581frequ\u00eancia": 4441, "\u2581\u043a\u0430\u0442\u0435\u0433\u043e": 4442, "\u2581toilet": 4443, "\ub798": 4444, "\u2581environs": 4445, "\u2581\u043f\u0443\u0442\u0438": 4446, "isuutta": 4447, "\u2581visse": 4448, "hs": 4449, "\u2581iek\u0161": 4450, "\u2581s\u00e5": 4451, "\u2581nasal": 4452, "\u2581madre": 4453, "\u2581scrive": 4454, "\u2581abbrac": 4455, "applik": 4456, "\u03c4\u03c3\u03b9": 4457, "\u017adzie": 4458, "\u2581fevereiro": 4459, "\u2581suggestion": 4460, "\u2581inici": 4461, "\u2581jednak\u017ce": 4462, "\u2581\u00edndice": 4463, "\u2581occasionally": 4464, "onti": 4465, "\u2581church": 4466, "\u2581m\u016f\u017ee": 4467, "\u2581Geor": 4468, "\u2581\u0441\u0435\u043f\u0442\u0435\u043c\u0432\u0440\u0438": 4469, "\u2581virker": 4470, "BERT": 4471, "\u30bf\u30a4\u30e0": 4472, "\uc774\uc9c0": 4473, "\u0abe": 4474, "\u2581specul": 4475, "\u2581vojske": 4476, "\u5e2b": 4477, "\u0447\u043d\u043e\u0433\u043e": 4478, "\u2581miljard": 4479, "ickiego": 4480, "\u2581\u0938\u092d\u093e": 4481, "av\u00edrus": 4482, "lerini": 4483, "\u0446\u0456\u044f\u043c\u0438": 4484, "\u2581Znaj": 4485, "\u5c39": 4486, "Create": 4487, "\u0440\u043e\u0432\u0430\u043d\u0438\u0435\u043c": 4488, "\u2581M\u00fcn": 4489, "\u016fr": 4490, "\u2581bombas": 4491, "\u2581Constantine": 4492, "amad": 4493, "\u0146\u0113m": 4494, "\u6657": 4495, "\u2581exitos": 4496, "\u2581\u015bwi\u0119ty": 4497, "\u2581\u0441\u0435\u0437\u043e": 4498, "urts": 4499, "\u2581propozy": 4500, "ward": 4501, "\u2581cambiar": 4502, "\u8cd1": 4503, "\u0146\u0161": 4504, "\u5169\u500b": 4505, "\u2581Van": 4506, "essaan": 4507, "\u2581szere": 4508, "\u2581ricevere": 4509, "\u2581raja": 4510, "\u2581vie\u0161": 4511, "\u00fces": 4512, "\u00fclet": 4513, "\u2581Einsatz": 4514, "\u2581Bucure\u0219ti": 4515, "\u2581koskaan": 4516, "\u2581\u0645\u062c\u0644\u0633": 4517, "nja": 4518, "nee": 4519, "\u2581beskriv": 4520, "gebieten": 4521, "cou": 4522, "\u2581\u041f\u043e\u0437\u0436\u0435": 4523, "\u5948": 4524, "\u6893": 4525, "\u03be\u03b1\u03bd": 4526, "\u00e9tant": 4527, "\u0927\u093e\u0930\u0923": 4528, "\u5c24": 4529, "gut": 4530, "\u00b6": 4531, "\u2581communale": 4532, "\u043b\u0435\u0436\u043d\u043e\u0441\u0442\u0456": 4533, "\u2581verwacht": 4534, "\u2581percep": 4535, "\u2581Jos\u00e9": 4536, "\u2581Wed\u0142ug": 4537, "\u2581announced": 4538, "itelji": 4539, "\u0101jis": 4540, "\u2581missionary": 4541, "\u2581lig\u0173": 4542, "ement": 4543, "\u2581ook": 4544, "\u2581Jedy": 4545, "\u2581mo\u017cna": 4546, "\u2581preth": 4547, "\u2581\u03bb\u03cc\u03b3\u03bf": 4548, "\u2581tunnet": 4549, "\u2581reconstruct": 4550, "\u2581vedel": 4551, "\u1f29": 4552, "\u8d1f\u8d23\u4eba": 4553, "\u306b\u3064": 4554, "\u0119dzi": 4555, "\u2581\u062a\u062e": 4556, "\ub084": 4557, "c\u00f3": 4558, "\u5c55\u5f00": 4559, "\u3067\u3042\u308b": 4560, "\u2581s\u00fcg": 4561, "\u2581seul": 4562, "\u2581imperial": 4563, "\u2581Lah": 4564, "\u2581lutte": 4565, "\u2581Maybe": 4566, "\u2581contr": 4567, "\u2581Herrschaft": 4568, "\u2581prawem": 4569, "\u2581\u043e\u0431\u0449\u0435\u0439": 4570, "dze": 4571, "\uc816": 4572, "\u672a\u6765": 4573, "\u0101nu": 4574, "\u2581podobnie": 4575, "\u2581\u0412\u0435\u043b\u0438\u043a\u043e\u0431\u0440\u0438\u0442\u0430\u043d\u0438\u0438": 4576, "\u2581\u0431\u044e\u0440\u043e": 4577, "\u2581sklopu": 4578, "anc": 4579, "aks": 4580, "vation": 4581, "\u2581\u043f\u043e\u0434\u0440\u0430\u0437\u0434\u0435": 4582, "\uac04": 4583, "\u2581fluids": 4584, "\u2581\u03cc\u03c4\u03b9": 4585, "<0x09>": 4586, "\u2581citado": 4587, "\u2581usados": 4588, "\u2581strzel": 4589, "\u00eas": 4590, "\u732a": 4591, "urteilt": 4592, "\u2581\uc544\ubb34": 4593, "ariado": 4594, "\u2581anatom": 4595, "\u5f6c": 4596, "\u2581Umwelt": 4597, "\u0646\u0627\u062f": 4598, "\u2581zatem": 4599, "\u2581\u03c0\u03b1\u03b9\u03c7\u03bd": 4600, "\u0121un": 4601, "\u0628\u0627\u0631": 4602, "\ucda9": 4603, "\u2581mostra": 4604, "kbira": 4605, "\u2581infine": 4606, "jou": 4607, "\u7eb5": 4608, "\u2581niezm": 4609, "\u2581pavir": 4610, "\u2581chaleur": 4611, "\u2581Anast": 4612, "ICEF": 4613, "\u2581Far": 4614, "\u0442\u0435\u043b\u044c\u043d\u043e\u0435": 4615, "ar\u0131na": 4616, "\u2581guess": 4617, "\u2581\u03bf\u03cd\u03c4\u03b5": 4618, "\u2581Dru": 4619, "\u2581plaintiff": 4620, "ilo": 4621, "\u2581Habs": 4622, "\u2581Am": 4623, "\u2581Stalin": 4624, "\u0101ji": 4625, "\u2581\u043a\u043e\u0442\u043e": 4626, "\u0432\u0435\u0440\u0430": 4627, "\u2581leg\u00edt": 4628, "\u2581\u03bb\u03bf\u03b3": 4629, "\u2581dom\u00ednio": 4630, "\u2581newborn": 4631, "\u2581Trennung": 4632, "\u00f6tet": 4633, ",--": 4634, "\u2581Joel": 4635, "\u2581Einzel": 4636, "\u2581Das": 4637, "\u4e9c": 4638, "\u7cca": 4639, "Barcelona": 4640, "\u2581prati": 4641, "\u2581stern": 4642, "\u2581\u0418\u0441\u043f\u0430\u043d\u0438\u0438": 4643, "\u947c": 4644, "\u5afb": 4645, "\u2581naszym": 4646, "\u3081\u3066": 4647, "\u2581Schiffe": 4648, "\u2581\u0435\u0441\u0442\u0435": 4649, "\u0436\u0434\u0430\u0442\u044c": 4650, "erken": 4651, "\u0178": 4652, "\u2581toegepast": 4653, "\u2581yl": 4654, "konn": 4655, "\u2581Boyle": 4656, "igem": 4657, "\u2581Suurb": 4658, "\u2581\u0915\u094d\u0932": 4659, "izou": 4660, "\u2581Commit": 4661, "\u2581maha": 4662, "\u767d": 4663, "\u2581richied": 4664, "\u2705": 4665, "\u2581\u043f\u043e\u0433\u0438": 4666, "\u2581\u0431\u0435\u0440\u0435\u043c\u0435\u043d": 4667, "\u2581coorden": 4668, "\u2581tragedy": 4669, "zur": 4670, "\u2581automobile": 4671, "\u2581\u03b5\u03c3\u03c9\u03c4\u03b5\u03c1": 4672, "\u2581Tecnologia": 4673, "\u2581dakika": 4674, "yk": 4675, "\u2581injury": 4676, "\u2581nd\u00e9": 4677, "\u2581issa": 4678, "\u2581\u03c3\u03cd\u03bd\u03bf": 4679, "\u2581k\u00f6zep": 4680, "\u0444\u043e\u0440\u0430": 4681, "\uc6c3": 4682, "\u2581j\u00e1t\u00e9k": 4683, "ando": 4684, "...]": 4685, "\u2581\u0430\u0431\u0441\u043e\u043b\u044e\u0442\u043d\u043e": 4686, "uf": 4687, "jug": 4688, "\u2581lent": 4689, "ebas": 4690, "\u2581sneller": 4691, "\u2581timber": 4692, "\u2581loom": 4693, "\u2581\u043f\u0430": 4694, "riche": 4695, "\u2581\u0434\u0435\u043b\u0435": 4696, "\u2581incidence": 4697, "\u2581\u03b1\u03bd\u03b1\u03ba\u03b1": 4698, "\u03c7\u03c9": 4699, "\u2581genoeg": 4700, "\u2581\u0434\u043e\u0440\u043e\u0433": 4701, "\u2581tenere": 4702, "\u2581i\u015fle": 4703, "\u2581\u00e5ter": 4704, "\u2581amea\u00e7a": 4705, "ideas": 4706, "kea": 4707, "\u0923\u094d\u0921": 4708, "\u0444\u0440\u0438\u043a\u0430\u043d": 4709, "\u2581D\u011b": 4710, "\u7684\u4e00": 4711, "oed": 4712, "ums": 4713, "itym": 4714, "\u2581erfaring": 4715, "\u5841": 4716, "\u2581\u0441\u0443\u0434": 4717, "Qorti": 4718, "\u2581politici": 4719, "\u2581Schumacher": 4720, "rze\u015b": 4721, "\u2581Noel": 4722, "\u2581garn": 4723, "assenza": 4724, "\u2581operaci\u00f3n": 4725, "kol": 4726, "\u2581\u0422\u0443\u0440\u0446\u0438\u044f": 4727, "oglobin": 4728, "\u2581Cez": 4729, "\u817e": 4730, "\u2581breit": 4731, "\u2581Tim": 4732, "\u2581F\u00e9": 4733, "\u2581ragione": 4734, "\u2581aspect": 4735, "\u2581replica": 4736, "\u56fd\u6c11": 4737, "\u2581\u0430\u043a\u0442\u0440\u0438\u0441\u0430": 4738, "\u2581laughed": 4739, "\u5225\u306e": 4740, "\uc0c1": 4741, "\u2581jeunes": 4742, "\uc5d0\uc11c\uc758": 4743, "\u2581crises": 4744, "itettu": 4745, "nieka": 4746, "\u0642\u0647": 4747, "\u2581nutric": 4748, "\u30ed\u30fc\u30ba": 4749, "\u2581M\u00f6n": 4750, "\u2581ontdek": 4751, "ativ\u0103": 4752, "\u2581klik": 4753, "\u2581LinkedIn": 4754, "\u67af": 4755, "\u2581\u043f\u0440\u0438\u0432\u043e\u0434\u0438\u0442": 4756, "\u0439\u0434\u0435": 4757, "\u2581\u0393\u03b5\u03c1\u03bc\u03b1\u03bd": 4758, "ok": 4759, "\u2581\u043f\u0440\u0435\u0434\u0435": 4760, "\u2581Musical": 4761, "\u2581chiaro": 4762, "\ub0a8": 4763, "\u2581Drug": 4764, "\u2581knees": 4765, "\u043d\u0438\u0446\u0438\u0442\u0435": 4766, "\u66fe\u7d93": 4767, "\u2581gekommen": 4768, "\u2581\ud0a4": 4769, "\u968f\u540e": 4770, "\u0137u": 4771, "\u6062\u590d": 4772, "\u2581iniciativas": 4773, "siasi": 4774, "n\u015e": 4775, "urada": 4776, "\u2581*/": 4777, "\u0924\u093f\u0915": 4778, "itekten": 4779, "\u2581w\u0119g": 4780, "\u2581\u0447\u0438\u043d\u043e\u0432": 4781, "\u2581\u00e7\u0131kt\u0131": 4782, "wajcar": 4783, "arbeitete": 4784, "\u0441\u043d\u0456": 4785, "\u2581rivoluzion": 4786, "iend": 4787, "\u2581\u0442\u0440\u0430\u043d\u0441\u043f\u043e\u0440": 4788, "\u2581Ministre": 4789, "\u0437\u0438\u043e\u043d": 4790, "\u2581organizaciones": 4791, "\u0117kite": 4792, "\u2581sain": 4793, "\u2581povo": 4794, "\u2581competizione": 4795, "\u2581structur": 4796, "\u2581\u0410\u043a\u0430\u0434\u0435\u043c\u0438\u0438": 4797, "week": 4798, "\u2581\u0427\u0430\u0441\u0442\u044c": 4799, "\u2581grief": 4800, "\u0447\u0432\u0430": 4801, "\u96be\u4ee5": 4802, "\u2581sigur": 4803, "\u2581opmerk": 4804, "\u0445\u0435\u043d": 4805, "\u2581\u0171rhaj": 4806, "behe": 4807, "\u2581\uac80": 4808, "nese": 4809, "\u8d31": 4810, "it\u0117": 4811, "\u2581\u03c0\u03c1\u03cc\u03b2\u03bb\u03b7\u03bc\u03b1": 4812, "\u2581vairs": 4813, "\u2581powoduje": 4814, "\u2581off": 4815, "\u2581trap": 4816, "\u2581\u00f3timo": 4817, "korea": 4818, "\u2581same": 4819, "\u2581\u015blub": 4820, "\u576f": 4821, "\u0113ra": 4822, "voice": 4823, "\u2581\u0630\u0644\u0643": 4824, "\u2581respect": 4825, "\u2581\u0421\u0435\u0439": 4826, "\u6c59": 4827, "\u9a6c\u514b": 4828, "\u0441\u0442\u044f\u043c": 4829, "abbilt\u00e0": 4830, "\u2581violation": 4831, "\u2581vierde": 4832, "\u2581KN": 4833, "\u2581lesb": 4834, "reda": 4835, "\u9be8": 4836, "b\u0119d": 4837, "\u2581odab": 4838, "\u2581gegr\u00fcndet": 4839, "\u5c55\u793a": 4840, "\u2581\u0926\u0947": 4841, "\u2581\u0440\u044b\u0431\u044b": 4842, "iena": 4843, "\u2581\u0434\u043e\u0434\u0430": 4844, "\u2581reflexi\u00f3n": 4845, "\u2581\ub098": 4846, "\u6bcf\u5929": 4847, "\u0153urs": 4848, "\u2581Jenkins": 4849, "\u2581cena": 4850, "\u2581hing": 4851, "\u2581KO": 4852, "\u2581Ano": 4853, "\u90f5": 4854, "\u2581eigene": 4855, "reras": 4856, "\u53f8\u4ee4": 4857, "\u2581grups": 4858, "\u014b": 4859, "\u00edticos": 4860, "\u2581sprz\u0119": 4861, "\u2581Noticias": 4862, "\u2581\u0433\u043b\u0438": 4863, "\u2581\u0440\u0430\u0437\u0433\u043e\u0432\u043e": 4864, "\u2581Augusto": 4865, "\u043c\u043a\u0443": 4866, "\u0440\u043e\u0432\u0430": 4867, "\ub460": 4868, "Pre": 4869, "\u2581iem": 4870, "ograd": 4871, "\u2581libert\u00e0": 4872, "\u2581neust\u00e1le": 4873, "\u2581\u062d\u064a": 4874, "\u2581asub": 4875, "odiazep": 4876, "\u2581\u0627\u0644\u0639\u0644": 4877, "\u2581Fanny": 4878, "\ud241": 4879, "ie\u010di\u0173": 4880, "rati": 4881, "\u2581arts": 4882, "\u2581pronuncia": 4883, "\u58de": 4884, "\u2581f\u00fchrt": 4885, "\u2581geboorte": 4886, "blatt": 4887, "\u2581\u043f\u0440\u043e\u0434\u0430\u0436\u0438": 4888, "onkelijke": 4889, "\u2581inim": 4890, "\u306b\u3059\u308b": 4891, "\u2581\u0430\u0440\u0445\u0438\u0442\u0435": 4892, "\u2581evita": 4893, "\u2581Dentro": 4894, "\u2581Emb": 4895, "\u2581Anderson": 4896, "in\u0105": 4897, "\u2581monet": 4898, "\u0444\u0440\u0430": 4899, "\u2581zran": 4900, "kezet": 4901, "\u2581inherited": 4902, "lanze": 4903, "\ud0d4": 4904, "\ucee4": 4905, "eders": 4906, "\ube61": 4907, "\u2581\u03c5\u03c0\u03ae": 4908, "ellt": 4909, "Line": 4910, "\u2581\u0646\u0647\u0631": 4911, "\u2581\u0445\u043e\u0447\u0435\u0442": 4912, "annis": 4913, "\u2581\u043d\u0430\u0434\u043e": 4914, "ovom": 4915, "then": 4916, "\u514e": 4917, "\u66ec": 4918, "ranje": 4919, "\u2581Verhandlungen": 4920, "oller": 4921, "jaa": 4922, "\u2581proprio": 4923, "\u0436\u043a\u0430": 4924, "en\u00fd": 4925, "\u2581\u0431\u0430\u0437\u044b": 4926, "\u0433\u0430\u0439": 4927, "\u2581\u03b4\u03b5\u03ba\u03b1": 4928, "\u2581swimming": 4929, "\u6218\u4e89": 4930, "\u2581stemmen": 4931, "ending": 4932, "\u2581gouden": 4933, "\u96c0": 4934, "\u2581sano": 4935, "\u2581Bassi": 4936, "\u2581viele": 4937, "\u2581parab": 4938, "burst": 4939, "agre": 4940, "\u2581hypert": 4941, "changes": 4942, "\u2581punishment": 4943, "\u2581\u0627\u0644\u0634\u0631\u0643\u0629": 4944, "\u2581konser": 4945, "\u0644\u0627\u0643": 4946, "\u2581gr\u00fcndete": 4947, "\u5629": 4948, "\u0448\u0430\u0442\u0430": 4949, "\u2581\u0440\u043e\u0441\u0441\u0438\u0439\u0441\u043a\u0430\u044f": 4950, "ytic": 4951, "\u2581\u010derven": 4952, "\u2581kabel": 4953, "\u2581atg": 4954, "liku": 4955, "\u25b6": 4956, "\u30ec\u30fc\u30b7\u30e7\u30f3": 4957, "\u7d61": 4958, "Baptiste": 4959, "\u703e": 4960, "\u2581plazas": 4961, "\u2581Earth": 4962, "\u2581longitude": 4963, "Li": 4964, "\u2581phenomen": 4965, "\u2581di": 4966, "\u2581meilleurs": 4967, "\u2581cardiomyopathy": 4968, "\ub818": 4969, "\u2581tome": 4970, "\u9a45": 4971, "\u67e9": 4972, "\u62c5": 4973, "beno": 4974, "\u2581Unity": 4975, "\u0432\u043e\u0440\u044e": 4976, "\u2581Valenciana": 4977, "ierende": 4978, "\u2581ko\u0144": 4979, "\u00fcl\u00e9st": 4980, "\u2581Kiss": 4981, "\u2581\u062a\u0623\u062b\u064a\u0631": 4982, "\u2581\u0433\u0430\u0440\u0430": 4983, "\u2581implic": 4984, "\u2581enemigo": 4985, "\u043a\u043b": 4986, "\u2581pulling": 4987, "\u2581stolje\u0107a": 4988, "\u2581Firefox": 4989, "\u2581thoughts": 4990, "\u2581depres": 4991, "\u00edtulos": 4992, "\u2581Amerikas": 4993, "\u2581missing": 4994, "\u2581contribu": 4995, "\u30b9\u30bf\u30a4\u30eb": 4996, "\u2581Roma": 4997, "\u2581Quelle": 4998, "\u2581fins": 4999, "\u2581\u0932\u0947\u0902": 5000, "\u2581iktid": 5001, "leng": 5002, "umus": 5003, "\u2581be\u00efnvloed": 5004, "and\u017eio": 5005, "\u2581commerce": 5006, "fc": 5007, "\u2581\u043d\u0430\u0440\u043e\u0434\u0436\u0435\u043d\u043d\u044f": 5008, "\u2581Kes": 5009, "\u2581Grie": 5010, "\u2581\u092a\u0915\u094d\u0937": 5011, "\u2581rodzic\u00f3w": 5012, "\u2581Rahvus": 5013, "cycle": 5014, "ancouver": 5015, "\u2581\u043b": 5016, "\u2581Calif": 5017, "\u0439\u043d\u043e": 5018, "\u2581papie\u017ca": 5019, "enko": 5020, "gewinn": 5021, "\u2581m\u0101ks": 5022, "\u0131lmaz": 5023, "\u2581glaub": 5024, "\u2581mannen": 5025, "\u2581platforma": 5026, "streit": 5027, "\u2581paradigm": 5028, "\u2581folg": 5029, "partial": 5030, "bril": 5031, "\u2581beat": 5032, "put": 5033, "\u7682": 5034, "\u2581criou": 5035, "\u2581odpowiedzi": 5036, "astr\u0103": 5037, "\u2581de\u0161": 5038, "\u2581dagelijkse": 5039, "\u2581vaker": 5040, "automat": 5041, "\u2581\u0430\u044d\u0440\u043e": 5042, "\u2581variet": 5043, "\u2581Mistrz": 5044, "\u2581\u043d\u0430\u0437\u0432\u0443": 5045, "\u2581Gin": 5046, "Pri": 5047, "\u9031": 5048, "\u2581ispir": 5049, "\u2581pion": 5050, "\u2581\u043f\u0440\u043e\u0431\u043b\u0435\u043c": 5051, "\u2581\u0438\u0433\u0440\u0430\u0442\u044c": 5052, "over": 5053, "\u2581elektrick": 5054, "\u2581\u0412\u043b\u0430": 5055, "\u2581Leia": 5056, "\u2581Bacon": 5057, "\u2581Retrie": 5058, "estab": 5059, "\u2581Szyb": 5060, "tenia": 5061, "yset": 5062, "\u2581defi": 5063, "st\u00e4nden": 5064, "\u2581pesmi": 5065, "-{": 5066, "\u2581\u2192\\": 5067, "\u2581ruok": 5068, "\u043a\u0446\u0438\u0438": 5069, "\u2581bool": 5070, "ertos": 5071, "kowej": 5072, "wijd": 5073, "\u2581saldo": 5074, "\u2581bourg": 5075, "\u2581\u043e\u0431\u043b": 5076, "\u2581succesvolle": 5077, "\u2581\u0643\u0645\u0627": 5078, "\u2581prog": 5079, "\u2581Vlaanderen": 5080, "\u2581erm\u00f6glicht": 5081, "\u2581Hac": 5082, "\u03b3\u03bc\u03b1\u03c4\u03b1": 5083, "\u2581mha": 5084, "\u2581meetings": 5085, "\u2581militante": 5086, "urze": 5087, "ilaisten": 5088, "\u2581Radzie": 5089, "ombre": 5090, "\u2581Wallis": 5091, "utum": 5092, "\u2581Trabaj": 5093, "\u2581anlam": 5094, "\u2581mineurs": 5095, "Section": 5096, "\u304c": 5097, "\u30f4\u30a1": 5098, "\u2581joint": 5099, "\u2581Gener": 5100, "\u03ac\u03bb\u03b9": 5101, "\u2581aldea": 5102, "\u2581\u043e\u0441\u043e\u0431\u0435\u043d\u043d\u043e": 5103, "\u2581\u015bwie": 5104, "\u2581Guerrero": 5105, "\u2581compra": 5106, "\u2581morti": 5107, "\u0639\u0644": 5108, "alous": 5109, "\u0438\u0437\u043d\u044c": 5110, "\u2581karto": 5111, "erving": 5112, "\u093e\u0930\u094d\u0921": 5113, "\u3078\u306e": 5114, "\u2581\u0433\u043e\u0432\u043e\u0440\u044f\u0442": 5115, "\u2581funzionamento": 5116, "\u2581koop": 5117, "perk": 5118, "\u2581crear": 5119, "f\u00fchrten": 5120, "\u2581\u2581\u2581\u2581\u2581\u2581\u2581\u2581\u2581": 5121, "allisesti": 5122, "\u2581clima": 5123, "\u0434\u043d\u0435\u0432": 5124, "sigurt\u00e0": 5125, "\u2581pl\u00e1n": 5126, "\u2581show": 5127, "\u2581N\u00edor": 5128, "\u00e1ro": 5129, "\u5bb3": 5130, "allisia": 5131, "\u60e9": 5132, "\u0430\u0441": 5133, "\u2581r\u00e9daction": 5134, "\u2581metamorf": 5135, "\u2581mic": 5136, "\u2581melyet": 5137, "\u2581fishing": 5138, "abte": 5139, "\u2581\u0432\u0442\u043e": 5140, "\u757f": 5141, "\u2581\u041f\u0430\u0432\u043b\u0430": 5142, "il\u0117s": 5143, "\u2581prawos\u0142aw": 5144, "\u2581utenti": 5145, "\u2581afsl": 5146, "vena": 5147, "gr\u00e9": 5148, "\u2581\ub1cc": 5149, "\u2581invi": 5150, "\u2581\u0432\u0441\u0442\u0440\u0435": 5151, "\u2581iniz": 5152, "\u2581\u0454\u0434\u0438": 5153, "nne": 5154, "\u0433\u043e\u0434\u043e\u043c": 5155, "\u2581opozy": 5156, "endra": 5157, "\u10d2": 5158, "\u2581diesmal": 5159, "\u2581sel": 5160, "\u2581Litt": 5161, "ywiz": 5162, "\u043c\u0435\u0440\u0430": 5163, "\u2581s\u0142": 5164, "\u2581teorii": 5165, "isa\u0107": 5166, "\u2581\u0938\u092c": 5167, "eldud": 5168, "ott": 5169, "Home": 5170, "nMa": 5171, "\u2581scholarship": 5172, "\u2581\u0424\u043e\u0442\u043e": 5173, "l\u00e5": 5174, "\u2581Kund": 5175, "\u9810": 5176, "\u2581\u0906\u0924\u093e": 5177, "\u2581viven": 5178, "\u2581valstybin": 5179, "\u2581Kuk": 5180, "Son": 5181, "\u2581Kita": 5182, "\u2581provisional": 5183, "\u0441\u0435\u0434": 5184, "atore": 5185, "\u2581\ud68c": 5186, "\u2581or": 5187, "\u2581jornada": 5188, "ettuale": 5189, "\u2581\u043f\u043e\u043d\u044f\u0442\u044c": 5190, "\u2581s\u00ed": 5191, "\u2581arrec": 5192, "int\u00e9g": 5193, "dech": 5194, "\u2581attribu": 5195, "\u2581srp": 5196, "\u2581arrest": 5197, "\u2581\u0627\u0639\u062a": 5198, "\u2581laws": 5199, "\u2581\u0432\u044b\u0440\u0430": 5200, "\u2581feud": 5201, "\ub9dd": 5202, "\u99ac": 5203, "g\u0127u": 5204, "\u2581vermelho": 5205, "\u2581conduit": 5206, "\u30a8\u30f3": 5207, "\u2581\u0627\u0644\u0625\u064a\u0631": 5208, "\u2581verniet": 5209, "\u2581eletto": 5210, "\u2581Raad": 5211, "\u2581relaci\u00f3": 5212, "\u2581leggy": 5213, "\u2581\u043b\u0432": 5214, "l": 5215, "\u2581\u043d\u0430\u043b\u0435\u0436\u0430": 5216, "\u2581in\u00fa": 5217, "\u2581sist\u0113ma": 5218, "\u2581pasteb": 5219, "writer": 5220, "\u0447\u044c": 5221, "mii": 5222, "\u2581\uc6b0": 5223, "\ud64b": 5224, "\u2581be\u015f": 5225, "\u2581\u0432\u0438\u0434\u0435\u043e": 5226, "onnummer": 5227, "\u2581askeri": 5228, "bieter": 5229, "\u2581Echt": 5230, "rita": 5231, "\u6cbe": 5232, "Dev": 5233, "ipend": 5234, "AP": 5235, "\u2581suas": 5236, "\u0637\u0644\u0642": 5237, "\u2581vliegtuig": 5238, "\u2581gleichen": 5239, "\u2581olen": 5240, "\u2581unicamente": 5241, "\u2581gatunku": 5242, "olog\u00eda": 5243, "\u2581Espanya": 5244, "\u2581creato": 5245, "ulas": 5246, "ARM": 5247, "\u2581Instrument": 5248, "\u2581\uc0b6": 5249, "\u2581malignant": 5250, "ikten": 5251, "\u2581reto": 5252, "\u00e4\u00e4ll\u00e4": 5253, "\u2581Quand": 5254, "\u2581\u0432\u0438\u0434\u0456": 5255, "\u2581kv\u011btna": 5256, "\u2581hlas": 5257, "mitglied": 5258, "Michel": 5259, "\u2581starost": 5260, "\u2581\u017cy": 5261, "\u2581vaiz": 5262, "\u2581\u03a0\u03ad": 5263, "\u00e2n\u0103": 5264, "\u2581vogliono": 5265, "\u2581\u043e\u0433\u0440\u0430\u043d\u0438": 5266, "etery": 5267, "ve": 5268, "\u2581druh": 5269, "voll": 5270, "\u2581\u03ba\u03bf": 5271, "board": 5272, "\u2581diff\u00e9rente": 5273, "\u2581stycznia": 5274, "\u2581zuerst": 5275, "icide": 5276, "\u2581\u0915\u0930\u0947": 5277, "\u2581cada": 5278, "\u2581fraud": 5279, "\u2581crown": 5280, "\u2581\u0905\u0930": 5281, "\u2581eine": 5282, "\u4f84": 5283, "\u2581Brabant": 5284, "\u2581fabric": 5285, "\u2581dolara": 5286, "sprodu": 5287, "\u2581pronounced": 5288, "\u2581galim": 5289, "\u2581meg": 5290, "\u2581messenger": 5291, "\u0159\u00edzen\u00ed": 5292, "CII": 5293, "\u2581datant": 5294, "\u2581Gr\u00fcn": 5295, "\u2581verte": 5296, "\u2581ay": 5297, "\u2581delivered": 5298, "\u2581Stati": 5299, "\u2581cimit": 5300, "\u2581visiter": 5301, "\u2581ic": 5302, "\u2581darle": 5303, "\u2581pancreat": 5304, "\u2581tek": 5305, "\u2581f\u00e1jdal": 5306, "\u2581nei": 5307, "\u2581strata": 5308, "\u2581Auth": 5309, "\u2581Catedral": 5310, "\u2581opon": 5311, "\u5fae\u4fe1": 5312, "chte": 5313, "\u2581\u0938\u0915\u0924\u0940": 5314, "\u2581connex": 5315, "vus": 5316, "\u03bc\u03bf\u03c5": 5317, "\u012bk": 5318, "\u2581funsio": 5319, "\u2581bulk": 5320, "\u2581\u092f\u0942\u0928": 5321, "\u2581\u090f\u0915": 5322, "\u2581mesta": 5323, "Ta": 5324, "\u2581commonly": 5325, "\u516e": 5326, "\u2581atr\u00e1s": 5327, "\u2581procent": 5328, "\u2581\u0434\u043e\u043c\u0435": 5329, "\u0411\u0443": 5330, "\u2581anticon": 5331, "\u2581phenomena": 5332, "\u0447\u0435\u0441\u0442\u0432\u0430": 5333, "\u2581d\u00e9couverte": 5334, "verts": 5335, "agor": 5336, "\uc5b4\uc11c": 5337, "Facebook": 5338, "\u2581po\u0161t": 5339, "\u2581indicado": 5340, "ienen": 5341, "\u2581manufactured": 5342, "\u2581Lemma": 5343, "\u2581revealed": 5344, "\u2581\ud574\uacb0": 5345, "\u2581evitare": 5346, "\u2581In": 5347, "\u2581\u00f6r\u00f6k": 5348, "\u2581Modell": 5349, "\u2581Bobby": 5350, "ulouse": 5351, "\u2581geomet": 5352, "\u2581nacional": 5353, "\u2581Sio": 5354, "olip": 5355, "\u2581analis": 5356, "scripts": 5357, "\u2581\u0441\u0430\u043c\u043e\u0441\u0442\u0456\u0439": 5358, "\u2581\u0938\u0935\u093e\u0932": 5359, "%.": 5360, "\u2581Cura": 5361, "\u2581peers": 5362, "\u2581opdracht": 5363, "ern\u00e9": 5364, "\u5e6b": 5365, "\u2581fondateur": 5366, "pa\u00f1": 5367, "unless": 5368, "\u9499": 5369, "\u2581confes": 5370, "\u2581Ore": 5371, "ensystem": 5372, "\u2581p\u00e4\u00e4si": 5373, "\u2581\u03c4\u03b9\u03c2": 5374, "\u2581claves": 5375, "\u96b7": 5376, "\u2581secoli": 5377, "\u2581\u0440\u0430\u0437\u043b\u0438\u0447\u0438": 5378, "start": 5379, "\u0448\u0438\u043d\u0441\u0442\u0432\u043e": 5380, "\u2581pova\u017e": 5381, "\u2581autobi": 5382, "\u2581s\u00e1r": 5383, "\u8862": 5384, "\u05b6": 5385, "\u2581\u0445\u043e\u0440\u043e": 5386, "\u2581RSS": 5387, "\u756a\u7d44": 5388, "\u2581\u00fcberwiegend": 5389, "rasch": 5390, "\u7977": 5391, "\u2581junio": 5392, "\u2581Geschmack": 5393, "\u2581Moz": 5394, "\u2581displays": 5395, "Ham": 5396, "ilmi\u015ftir": 5397, "gte": 5398, "alling": 5399, "\u2581\u0437\u0430\u043c\u043e": 5400, "\u2581\u0627\u0644\u0645\u0635\u0631\u064a": 5401, "\u2581chin": 5402, "kiv": 5403, "\u2581termed": 5404, "\u2581\u0440\u0430\u0441\u0448\u0438": 5405, "\u2581povrchu": 5406, "\u2581pol\u00e9mica": 5407, "\u2581Miroslav": 5408, ")^": 5409, "\u2581\u00eemb": 5410, "laut": 5411, "\u093f\u091f": 5412, "n\u00edkov": 5413, "\u2581real": 5414, "\u2581profundidad": 5415, "\u5f03": 5416, "\u2581wydaje": 5417, "\u2581\u00dcberg": 5418, "\u2581kategori": 5419, "\u2581Auguste": 5420, "\u2581\u0391\u03bd\u03c4\u03af": 5421, "urum": 5422, "\u2581lymphoma": 5423, "\u2581M\u00fc": 5424, "\u2581metodi": 5425, "jewski": 5426, "strand": 5427, "\u0117jo": 5428, "v\u00e9d": 5429, "n\u010ce": 5430, "<0x08>": 5431, "ellect": 5432, "\u2581\u0411\u043b\u0430\u0433\u043e\u0434\u0430\u0440\u044f": 5433, "\u0447\u043d\u0438\u043a\u0430": 5434, "essere": 5435, "\u6e0b": 5436, "\u2581kollha": 5437, "chond": 5438, "\u2581\u092a\u094d\u0930\u0926\u0930\u094d\u0936\u0928": 5439, "\u2581\u0927": 5440, "\u2581kredit": 5441, "\u2581calculus": 5442, "\u2581medic": 5443, "\u2581phag": 5444, "\u2581\u064a\u062d\u062f\u062b": 5445, "\u0441\u043a\u043e\u043f": 5446, "\u2581Mauricio": 5447, "\u03b8\u03b7": 5448, "\u5206\u306e": 5449, "is\u0142aw": 5450, "<0x94>": 5451, "\u2581uspjeh": 5452, "reiben": 5453, "\u2581cursus": 5454, "pakt": 5455, "\u2581honderden": 5456, "Ve": 5457, "\u2581izskat": 5458, "\u541f": 5459, "utiliz": 5460, "\u2581liosta": 5461, "\u2581gef\u00e4hr": 5462, "\u5458\u5de5": 5463, "\u2581romances": 5464, "\ud06c": 5465, "\u9971": 5466, "uttua": 5467, "\u2581f\u00f6rekommer": 5468, "\u2581refuge": 5469, "\u2581krist": 5470, "\u2581\u0430\u043a\u0430\u0434\u0435\u043c\u0438\u0438": 5471, "\u2581tidlig": 5472, "\u2581l\u00edquido": 5473, "\u2581motiva": 5474, "<0x23>": 5475, "\u2581corred": 5476, "nieni": 5477, "\u2581z\u00e1": 5478, "\u2581vadinama": 5479, "ti\u00e4": 5480, "\u2581seca": 5481, "\u2581l\u00e5n": 5482, "\u2581Romagna": 5483, "\u03b4\u03af\u03b1\u03c2": 5484, "\u2581utilizando": 5485, "BF": 5486, "iket": 5487, "\u043b\u0435\u0442\u0438": 5488, "\u6da4": 5489, "\u0113jumu": 5490, "prom": 5491, "cision": 5492, "\ub9ac\uc988": 5493, "\u2581Instit": 5494, "\u2581\u03ba\u03ac": 5495, "\u2581liver": 5496, "\u2581Forschung": 5497, "\u9877": 5498, "\u2581Antik": 5499, "id\u00e4n": 5500, "induced": 5501, "\uc77d": 5502, "\u2581soir": 5503, "isiin": 5504, "\u2581alusta": 5505, "gera": 5506, "writ": 5507, "\u00e4v\u00e4t": 5508, "\u2581charm": 5509, "\u2581computation": 5510, "\u2581relacionada": 5511, "\u2581\u0913\u0930": 5512, "nu": 5513, "\u3068\u3068\u3082\u306b": 5514, "\u2581\u0627\u0644\u062a\u0642": 5515, "\u2581chiare": 5516, "\u2581sen": 5517, "\u2581k\u00e4ynn": 5518, "\u2581cells": 5519, "p\u00e4in": 5520, "\u2581T\u00f3": 5521, "\u0440\u0435\u0432\u043d\u043e\u0432\u0430": 5522, "sk\u00fdm": 5523, "\u2581kellu": 5524, "Asia": 5525, "\u2581scontro": 5526, "\u2581kuk": 5527, "\u2581\u00e7al\u0131\u015fmalar\u0131": 5528, "\u2581Oud": 5529, "amore": 5530, "\u3075": 5531, "\u2581\u043d\u043e\u044f\u0431\u0440\u0435": 5532, "\u2581\u0432\u043e\u0435\u043d\u043d\u044b\u0439": 5533, "install": 5534, "\u2581uomini": 5535, "\u012b\u0161anu": 5536, "\u2581fa\u010bli": 5537, "\u2581Rezension": 5538, "\u2581analogy": 5539, "Mik": 5540, "vertrag": 5541, "\u0131m": 5542, "\u2581elettrica": 5543, "\u2581menselijke": 5544, "\u2581figyel": 5545, "\u2581\ub54c": 5546, "\u2581\u00e9p\u00fclt": 5547, "\u2581fuga": 5548, "\u2581variadas": 5549, "\u2581Brust": 5550, "\u2581obstaja": 5551, "universo": 5552, "\ud310": 5553, "\u2581lumin": 5554, "\u75a4": 5555, "moved": 5556, "\u2581impede": 5557, "\u2581dana": 5558, "\u0633\u0644\u0633\u0644": 5559, "visi": 5560, "\u2581\u0905\u092e\u0947\u0930\u093f\u0915": 5561, "\u0449\u0438\u0445": 5562, "\u20ba": 5563, "\u0932\u092c": 5564, "\uc0b0\uc744": 5565, "\u2581verkeers": 5566, "\ub454": 5567, "poque": 5568, "\u2581solved": 5569, "remain": 5570, "\u2581tris": 5571, "\u2581Coco": 5572, "\u0633\u0627\u0645": 5573, "friendly": 5574, "\u2581ocorr\u00eancia": 5575, "werken": 5576, "inimas": 5577, "\u2581zelfstand": 5578, "empereur": 5579, "\u2581rig": 5580, "\u2581arbej": 5581, "\u7d2e": 5582, "\u0449\u043d\u043e\u0441\u0442": 5583, "\u2581\u043c\u0435\u0448\u043a\u0430\u043d": 5584, "\u2581pohlav": 5585, "\u2581Emilia": 5586, "\u2581\u03b1\u03bd\u03b1\u03ba\u03bf\u03af\u03bd": 5587, "elabor": 5588, "\u2581coordinate": 5589, "\u2581\u0432\u0430\u0440\u0438\u0430\u043d\u0442\u043e\u0432": 5590, "ess\u00e4\u00e4n": 5591, "\u00e1b\u00f3l": 5592, "\u2581fosfor": 5593, "\u2581consec": 5594, "\u7ecf\u9a8c": 5595, "iago": 5596, "\u2581asin": 5597, "\u2581spectacles": 5598, "\u2581\u0935\u093e\u0932\u093e": 5599, "\u00e2ntico": 5600, "\u2581duy": 5601, "mater": 5602, "\u2581paremmin": 5603, "\u2581Heming": 5604, "\u2581manca": 5605, "\u2581versuchen": 5606, "orrer": 5607, "uci": 5608, "\u0447\u043d\u0438\u043a\u043e\u043c": 5609, "\u2581\u0421\u0438\u0441\u0442\u0435\u043c\u0430": 5610, "\u2581Inoltre": 5611, "\u767a\u751f": 5612, "fallen": 5613, "sal": 5614, "<0x9D>": 5615, "\u2581Wandel": 5616, "\u2581veterans": 5617, "\u2581keren": 5618, "\u2581\u010fal\u0161ie": 5619, "\u2581oporu": 5620, "risk": 5621, "\u2581\u043f\u0440\u0438\u043c\u0435\u043d\u044f\u0435\u0442\u0441\u044f": 5622, "\u2581Joachim": 5623, "\u2581\u03b1\u03c0\u03bf\u03c4\u03b5\u03bb\u03bf\u03cd\u03bd": 5624, "acin": 5625, "\u2581Andr\u00e9": 5626, "\u2581\uac70\ub798": 5627, "\u2581Suecia": 5628, "\u8f93": 5629, "\u2581gc\u00e9ad": 5630, "\u2581izl": 5631, "\u2581\u03b3\u03c5": 5632, "\u2581\u0938\u0947\u0902": 5633, "\u2581\uae68": 5634, "\u2581\u043e\u0434\u043d\u043e\u0433\u043e": 5635, "\u7528\u4e8e": 5636, "lo": 5637, "\u81ea\u52d5\u8eca": 5638, "Minister": 5639, "poses": 5640, "\u00fctte": 5641, "\u2581privaten": 5642, "\u9510": 5643, "\u2581Kuzey": 5644, "\u0441\u0442\u0440\u0456": 5645, "\u2581p\u00e9d": 5646, "\u2581Mura": 5647, "\u2581sep": 5648, "\u2581entrance": 5649, "\u2581artyler": 5650, "\u2581SL": 5651, "\u2581imponer": 5652, "auto": 5653, "\u092a\u093e\u0924": 5654, "\u2581Cerv": 5655, "\u2581\u00fat": 5656, "\u2581Louise": 5657, "\u2581serial": 5658, "\u2581\u0441\u0432\u043e\u0435\u043c\u0443": 5659, "\u2581famili": 5660, "\u2581spo\u0142ec": 5661, "\u2581Contract": 5662, "\u2581\u00fcgy": 5663, "\u2581\u0433\u043e\u043b": 5664, "\u2581atlikti": 5665, "\u2581kandidaat": 5666, "channel": 5667, "\u2581z\u00e1klad": 5668, "\u2581archa": 5669, "\u03b4\u03af": 5670, "\u2581solucion": 5671, "\u2581atkl": 5672, "\u2581Santa": 5673, "\u2581viaje": 5674, "\u697d\u3057": 5675, "\u2581proc\u00e9d\u00e9": 5676, "utes": 5677, "\u2581p\u00e4ev": 5678, "\u5c4d": 5679, "\u2581\u0443\u0442\u0435": 5680, "\u2581\u092d\u093e": 5681, "\u2581verwendeten": 5682, "\u30df": 5683, "unkowo": 5684, "\u2581Europe": 5685, "nHot": 5686, "\u2581v\u00e4s": 5687, "\u2581aliments": 5688, "\u65b0\u7586": 5689, "\u2581\u0434\u043e\u0441\u0442\u043e": 5690, "\u2581riprodu": 5691, "\u0441\u0442\u0443\u043f": 5692, "\u2581innerhalb": 5693, "\u2581dist\u00e2ncia": 5694, "\u2581mbliana": 5695, "bur": 5696, "\u03bc\u03ad\u03bd\u03bf\u03b9": 5697, "onych": 5698, "ya\u00e7": 5699, "nKa": 5700, "\u2581\u0399\u03bf\u03c5\u03bd\u03af\u03bf\u03c5": 5701, "\u2581tapaht": 5702, "\u6570\u306e": 5703, "\u9080": 5704, "land\u0131": 5705, "\u2581Cec": 5706, "\u2581linna": 5707, "\u2581\u041c\u0435\u0436\u0434\u0443": 5708, "\u0433\u043b\u0435\u0436\u0434\u0430": 5709, "\u2581induce": 5710, "\u0442\u0438\u0447\u0435\u0441\u043a\u043e\u0433\u043e": 5711, "\u2581ador": 5712, "ijdens": 5713, "\u2581..": 5714, "\u3082\u306e\u306f": 5715, "\u2581GA": 5716, "\u2581variabile": 5717, "\u3057\u306e": 5718, "\u2581empreg": 5719, "\u2581dru\u017e": 5720, "\u2581\u0441\u043e\u043e\u0431\u0449\u0438\u043b\u0438": 5721, "iaus": 5722, "\u2581\u039c\u03c0": 5723, "kke": 5724, "ortiment": 5725, "\u2581wiecz": 5726, "\u2581incapable": 5727, "\u2581disposit": 5728, "\u2581IM": 5729, "\u2581Flam": 5730, "\u2581ge\u00e7en": 5731, "oming": 5732, "\u4ed9": 5733, "\u2581corresponding": 5734, "\u2581\u043f\u043e\u043a\u0440\u0438": 5735, "\u03c0\u03c9\u03c2": 5736, "\u2581Dumas": 5737, "ows": 5738, "\u2581Kies": 5739, "\u2581occur": 5740, "\u0448\u043e\u0433\u043e": 5741, "\ub180": 5742, "\u0159it": 5743, "\u7d14": 5744, "\u0909": 5745, "ignac": 5746, "\u2581r\u00e9el": 5747, "\u2581\u043d\u044e": 5748, "\u2581publicaci\u00f3n": 5749, "\u2581\u0627\u0644\u0634\u064a\u062e": 5750, "\u2581odg": 5751, "\u2581zwol": 5752, "\u0644\u0627\u0644": 5753, "ni\u0142a": 5754, "\u2581\u0431\u043e\u043d\u0443\u0441": 5755, "\u2581Largo": 5756, "\u2581groups": 5757, "\u2581przedstaw": 5758, "\u8e8d": 5759, "Va": 5760, "\u2581\u0442\u0440\u0443\u0434\u0430": 5761, "\u2581\u041a\u0430\u0437\u0430\u0445": 5762, "\u2581Suas": 5763, "\u2581\u0121en": 5764, "\u2581napl": 5765, "\u2581tautas": 5766, "\u2581hangt": 5767, "sk\u0105": 5768, "\u2581orizz": 5769, "\u2581autorstwa": 5770, "ycznego": 5771, "\u2581gouvernement": 5772, "\u2581\u0627\u0644\u062f\u0648\u0644\u064a\u0629": 5773, "\u2581Guevara": 5774, "\u2581volont\u00e0": 5775, "\u2581zieken": 5776, "\u2581satisfies": 5777, "\u03c7\u03b9": 5778, "\u2581K": 5779, "\u2581Kup": 5780, "\u2581vokie": 5781, "\u0447\u043d\u043e\u0435": 5782, "\u2581medizin": 5783, "ciones": 5784, "epen": 5785, "\u2581weighted": 5786, "\u2581\u03b4\u03b5\u03b4\u03bf": 5787, "\u00fcnk\u00fc": 5788, "\u2581\u043f\u043e\u0437\u0436\u0435": 5789, "\u2581fr\u00e5gor": 5790, "estru": 5791, "\u2581\u0121ejjin": 5792, "\u2581mong": 5793, "\u2581dziedzinie": 5794, "\u2581\u0938\u092c\u0938\u0947": 5795, "\u0431\u0443\u0440\u0433\u0435": 5796, "\u2581kehitt": 5797, "\u2581night": 5798, "r\u00e4nkt": 5799, "\u2581bronch": 5800, "uskeskus": 5801, "\u2581post\u0119p": 5802, "iciale": 5803, "<0x5E>": 5804, "\u2581commerci": 5805, "hiba": 5806, "raggio": 5807, "\u2581mi\u0119\u015bni": 5808, "\u2581query": 5809, "dziem": 5810, "\u2581genomf\u00f6r": 5811, "\u2581mikroskop": 5812, "\u2581Turun": 5813, "ustra": 5814, "\u2581syndicats": 5815, "\u2581maggio": 5816, "\u2581Orch": 5817, "\u2581\u0431\u043e\u043b\u0435": 5818, "edificio": 5819, "\ud058": 5820, "coled\u00ec": 5821, "li": 5822, "\u2581\u0432\u0438\u0437\u0430\u043d\u0442\u0438\u0439": 5823, "\u2581yas": 5824, "\u2581dak": 5825, "\u2581d\u00fb": 5826, "wound": 5827, "gestelde": 5828, "\u2581polski": 5829, "\u5580": 5830, "alius": 5831, "\u2581najd": 5832, "\u2581butter": 5833, "\u2581Fru": 5834, "Maria": 5835, "\u0437": 5836, "\u2581\u0939\u093f\u0938\u094d\u0938\u093e": 5837, "\u2581Zemes": 5838, "\u2581\ubc1c\uc804": 5839, "\u2581diplom": 5840, "\u2581Gegensatz": 5841, "\u2581confirms": 5842, "\u2581dolog": 5843, "\u2581repr\u00e9sentation": 5844, "\u2581niew": 5845, "\u2581nazwa": 5846, "\u2581\u03bc\u03b7\u03bd": 5847, "\u2581Poll": 5848, "\u2581deny": 5849, "\u2581hab": 5850, "\u2581v\u00e4lill\u00e4": 5851, "\u2581r\u00e6kke": 5852, "\u2581\ucc44": 5853, "\u2581vej": 5854, "oriais": 5855, "coa": 5856, "\u2581reducir": 5857, "\u2581\u0441\u0442\u043e\u043b\u044c\u043a\u043e": 5858, "ecs": 5859, "\u2581\u043d\u0435\u0439\u0440\u043e": 5860, "\u8b0e": 5861, "\u2581comiss\u00e3o": 5862, "\u6d3d": 5863, "\u2581distances": 5864, "\ucdb0": 5865, "\u2581\u00e7evres": 5866, "fst": 5867, "articles": 5868, "\u2581chwil\u0119": 5869, "\u2581\u017c\u00f3\u0142": 5870, "\u2581aange": 5871, "\u2581\u0432\u0435\u043b\u0438\u0447\u0438": 5872, "\u0418\u0422": 5873, "\u2581\u0441\u044a\u0441": 5874, "\u2581onderscheid": 5875, "\u2581\u0905\u0902\u0924\u0930": 5876, "example": 5877, "\ub810": 5878, "kowa\u0107": 5879, "\u2581\u0435\u043b\u0435": 5880, "evel": 5881, "\u0151z": 5882, "\u2581\u03a1\u03ce": 5883, "\u2581zav": 5884, "\u2581zdarma": 5885, "\u2581progetto": 5886, "\u2581\u0631\u0648\u0633": 5887, "\u2581\u03b1\u03bd\u03c4\u03af": 5888, "\u2581Rak": 5889, "\u2581\u0411\u043e\u0433\u0430": 5890, "\u2581gond": 5891, "riv": 5892, "\u2581intestine": 5893, "\u2581llev": 5894, "\u2581Duk": 5895, "\uc131": 5896, "\u9614": 5897, "\u2581uaf": 5898, "\u2581\u0440\u0435\u0430\u043b\u044c\u043d\u043e": 5899, "\u6846": 5900, "\u2581\u041c\u0430\u043a\u0441\u0438": 5901, "\u2581semanas": 5902, "\u2581itiner": 5903, "\u2581Mohamed": 5904, "pherd": 5905, "orsch": 5906, "\u2581inguinal": 5907, "irken": 5908, "\u2581geto": 5909, "\u2581\u00bb.": 5910, "\u2581\u0648\u062d\u062f": 5911, "\u5b89\u5fc3": 5912, "\u2581Harris": 5913, "\u2581IG": 5914, "kao": 5915, "\u2581intenz": 5916, "ieler": 5917, "\u2581pont": 5918, "\u2581strugg": 5919, "\u0432\u0435\u0446": 5920, "\u00fcss": 5921, "qar": 5922, "\ud50c": 5923, "\u2581Gl\u00fcck": 5924, "\u2581Vichy": 5925, "\u2581apt": 5926, "\u2581\ud53c\ud574": 5927, "\u2581Denis": 5928, "\u2581GMT": 5929, "\u2581signes": 5930, "bij": 5931, "\u7ed3": 5932, "\u2581fonctionnement": 5933, "\u666e": 5934, "\u2581osnov": 5935, "\u30fc\u30bf": 5936, "\u2581suspension": 5937, "\u2581conoscenza": 5938, "\u0432\u0447\u0430": 5939, "\u8367": 5940, "gemene": 5941, "enti": 5942, "\u0433\u043d\u043e": 5943, "bhre": 5944, "\u2581intensidade": 5945, "vanie": 5946, "\u2581\uadf8\ub7ec\ub098": 5947, "\u2581\u00edndios": 5948, "\u094d\u0932": 5949, "\u2581stanza": 5950, "\u2581masc": 5951, "FT": 5952, "\u2581L\u00f6sungen": 5953, "unic": 5954, "caras": 5955, "\u6b66\u5e1d": 5956, "\u2581alcalde": 5957, "\u2581\u010fal": 5958, "\u2581Vokietijos": 5959, "\u2581pil": 5960, "\u2581politician": 5961, "\u2581consigue": 5962, "\u2581\u0436\u0435\u043d\u044b": 5963, "\u02d0": 5964, "\u2581tomu": 5965, "\u2581Oranje": 5966, "\u2581ticaret": 5967, "\u2581\u092f\u0942": 5968, "ienst": 5969, "ekomst": 5970, "\u2581Church": 5971, "private": 5972, "\u2581Poznaniu": 5973, "\ud765": 5974, "\u2581\u0437\u043d\u0430\u0435\u0442\u0435": 5975, "\u2550": 5976, "ixo": 5977, "\u012bcijas": 5978, "lingen": 5979, "\u2581raffigur": 5980, "\u2581\u0438\u043d\u0434\u0438\u0432\u0438": 5981, "\u2581Liszt": 5982, "\u8358": 5983, "\u201f": 5984, "orrenza": 5985, "\u2581rispettivamente": 5986, "Gre": 5987, "\u2581kr\u00f3lew": 5988, "\u2581admire": 5989, "\u2581bieten": 5990, "lice": 5991, "\u2581leave": 5992, "\u7cbe\u51c6": 5993, "\uc9e4": 5994, "\u94a2": 5995, "\u2581arte": 5996, "cellen": 5997, "\u0432\u0435\u0434\u0435": 5998, "\u2581fih": 5999, "\u2581bheith": 6000, "\u2581planta": 6001, "gars": 6002, "\u2581juut": 6003, "\u0436\u0435\u043b\u0430": 6004, "\u2581modeled": 6005, "\u2581Vila": 6006, "\uc74c": 6007, "\u00edtott\u00e1k": 6008, "\u2581\u0443\u0441\u0442\u0430\u043d\u043e\u0432\u0438\u0442\u044c": 6009, "\u2581\u0938\u092e\u0938\u094d\u092f\u093e": 6010, "\u2581scatter": 6011, "\u2581sketch": 6012, "\u2581\u00e9tablissement": 6013, ",\u300a": 6014, "\u2581Ken": 6015, "\u2581Klu": 6016, "floor": 6017, "\u2581razum": 6018, "\u2581\u00e9viter": 6019, "\u2581Additionally": 6020, "\u2581Kanady": 6021, "\u2581\u043d\u0430\u043f\u0438\u0441\u0430\u043b": 6022, "\u2581echt": 6023, "\u2581enthusi": 6024, "uff\u00fchrung": 6025, "\u5267": 6026, "\u00fad": 6027, "\u6238": 6028, "<extra_id_114>": 6029, "\u7344": 6030, "\u2581Nachfolger": 6031, "\u2581\u0443\u0434\u043e\u0431\u043d\u043e": 6032, "ubern": 6033, "orpa": 6034, "irala": 6035, "\u2581\u0441\u0430\u0439\u0442": 6036, "\u044c\u0438": 6037, "\u2581tug": 6038, "\u2581turco": 6039, "\u0448\u043a\u0438": 6040, "\u2581Gast": 6041, "\u2581\u092e\u0940": 6042, "ijah": 6043, "\u2581inhibitor": 6044, "\u2581platt": 6045, "Mon": 6046, "\u2581capelli": 6047, "\u2581deux": 6048, "\u521a": 6049, "\u2581pind": 6050, "\u677f": 6051, "\u2581Handball": 6052, "\u2581Alk": 6053, "isting": 6054, "\u2581\u00c4gypten": 6055, "\u0433\u0430\u0437\u0438": 6056, "folgt": 6057, "wesen": 6058, "skoga": 6059, "\uc62c": 6060, "\u2581systemie": 6061, "czania": 6062, "vanced": 6063, "\u4ff1": 6064, "\u2581Yorker": 6065, "\u2581ludzk": 6066, "men": 6067, "\u093e\u092f\u0915": 6068, "k\u0101p": 6069, "\u2581vajalik": 6070, "\u9d6c": 6071, "\u0454\u0432": 6072, "\u2581\u0433\u0440\u0438": 6073, "\u2581tyn": 6074, "\u2581\u00fclem": 6075, "fox": 6076, "\u2581sosp": 6077, "\u2581emotion": 6078, "Connor": 6079, "\u2581Sk\u00e5ne": 6080, "\u2581atividade": 6081, "\u2581\u043e\u0434\u0435\u0440\u0436\u0430": 6082, "\u7642": 6083, "\u2581Scandin": 6084, "\u2581\u0434\u0435\u0440\u0435\u0432": 6085, "\u00e9kes": 6086, "\u2581synth\u00e8se": 6087, "\ud540": 6088, "\u2581\uc9c0\uad6c": 6089, "\u2581GRE": 6090, "\u2581seta": 6091, "\u2581melanoma": 6092, "\u2581m\u00e9dicos": 6093, "\u57ce\u9547": 6094, "._,": 6095, "\u2581\uc11d": 6096, "\u2581tenido": 6097, "teilt": 6098, "k\u0119": 6099, "\u2581ayant": 6100, "\u2581Hay": 6101, "\u2581bula": 6102, "\u2581Oft": 6103, "\u2581waqt": 6104, "comes": 6105, "\u2581Evang": 6106, "\u30b3\u30f3\u30d4\u30e5\u30fc\u30bf": 6107, "\uc36c": 6108, "\u2581Do": 6109, "\u2581Chaplin": 6110, "\u2581ener": 6111, "\u2581Jans": 6112, "\u2581groep": 6113, "h\u00fa": 6114, "\u2581Cyprus": 6115, "ianza": 6116, "\u2581Panc": 6117, "\u8d4e": 6118, "yszard": 6119, "\u2581prvo": 6120, "\u2581emer": 6121, "\u2581avete": 6122, "\u2581caract\u00e9ristique": 6123, "\u2581kot": 6124, "\u7533\u8bf7": 6125, "\u2581\u0431\u0430\u043d\u043a\u043e\u0432": 6126, "\u2581conflu": 6127, "\u2581\ub4f1\uc758": 6128, "\u0938\u0902\u0926": 6129, "\u2581terug": 6130, "\u2581Ning": 6131, "\u2581toca": 6132, "\u2581sp\u00e4t": 6133, "beeld": 6134, "ights": 6135, "\u2581trenera": 6136, "\u2581huis": 6137, "\u2581individuo": 6138, "\u2581pinta": 6139, "\u4e3b\u52a8": 6140, "xico": 6141, "\u043b\u0451\u043c": 6142, "\u2581t\u00e9l\u00e9vis": 6143, "\u2581\u0442\u0440\u0430\u0434\u0438\u0446\u0438\u043e\u043d": 6144, "\u2581Mos": 6145, "\u3063\u3066\u304a\u308a": 6146, "related": 6147, "owing": 6148, "\u95e1": 6149, "\u2581iedereen": 6150, "!\u201d\\": 6151, "<0xD5>": 6152, "\u0449\u0438\u0442\u0435": 6153, "\u2581pr\u00edpade": 6154, "\u30de\u30b9": 6155, "\u2581\u043e\u0442\u0435\u0447\u0435": 6156, "<extra_id_70>": 6157, "\u8ce6": 6158, "\u2581Pix": 6159, "\u2581innovative": 6160, "mathr": 6161, "\u2581Govern": 6162, "\u2581marsh": 6163, "\u2581Berlino": 6164, "orecept": 6165, "\u2581certainly": 6166, "\u03bb\u03b5\u03af\u03b1": 6167, "OP": 6168, "\u2581dissoci": 6169, "\u2581\u0431\u0443\u0434\u0443\u0449\u0435\u043c": 6170, "\u2581titled": 6171, "\u2581questo": 6172, "uco": 6173, "\u2581atgrie": 6174, "\u00fablic": 6175, "\u3093": 6176, "g\u00f6r": 6177, "iday": 6178, "\u2581dout": 6179, "\u03b9\u03bf\u03cd": 6180, "\u2581fee": 6181, "iemo\u017cli": 6182, "\u641c\u7d22": 6183, "\u2581facture": 6184, "\u2581Ceres": 6185, "\u2581vur": 6186, "\u2581Litu": 6187, "\u2581golden": 6188, "musiker": 6189, "GH": 6190, "\u2581mlade": 6191, "\u2581destacan": 6192, "\u0441\u043c\u0435": 6193, "\u043d\u0438\u0446\u0442\u0432\u043e": 6194, "\u2581\u0432\u043e\u0435\u043d\u043d\u043e": 6195, "\u2581ha": 6196, "ling": 6197, "\u2581ville": 6198, "staaten": 6199, "\u2581\u0432\u0442\u043e\u0440\u043e\u043c": 6200, "\u2581americ": 6201, "\u0441\u043a\u0430\u0445": 6202, "<extra_id_226>": 6203, "\u2581esistono": 6204, "\u2581ottobre": 6205, "\u2581First": 6206, "\u9488\u5bf9": 6207, "\u2581\u03bf\u03bc\u03ac\u03b4\u03b1\u03c2": 6208, "\u2581Whe": 6209, "\u2581genres": 6210, "\u2581wielok": 6211, "\u990a": 6212, "\u2581\u043e\u0445\u043e": 6213, "metre": 6214, "\u307f\u306e": 6215, "\u2581\u0423\u0440\u0430": 6216, "\u2581\u0420\u0443\u0441\u0438\u044f": 6217, "\u2581sabato": 6218, "eranno": 6219, "\u2581abb": 6220, "\u2581Website": 6221, "\u2581Geo": 6222, "\u0448\u0438\u0445": 6223, "\u0144ca": 6224, "\u0161kiai": 6225, "\u2581T\u00e4t": 6226, "\u2581escritor": 6227, "\u2581puisqu": 6228, "\u2581Platz": 6229, "zium": 6230, "\u2581Suri": 6231, "\u2581contradiction": 6232, "\u0936\u094d\u091a": 6233, "acha": 6234, "\u2581stammt": 6235, "\u2581mentor": 6236, "\u8eab\u4efd": 6237, "\u2581Militar": 6238, "\u2581Trading": 6239, "\u8046": 6240, "\u2581\u044d\u043f\u0438\u0437\u043e": 6241, "\u2581\u0410\u0444": 6242, "\u2581customer": 6243, "\u0561": 6244, "\u2581development": 6245, "\u4e2d\u83ef": 6246, "ideks": 6247, "\u00a6": 6248, "\u2581\u0433\u0430\u0437\u0435\u0442\u044b": 6249, "yjnych": 6250, "\u2581vergeben": 6251, "\u2581M\u00e4r": 6252, "\u2581scaled": 6253, "\u2581Aviation": 6254, "\u2581xx": 6255, "\u2581\u043f\u043e\u0447\u0430\u0442\u043a\u0443": 6256, "\u2581\u043d\u043e\u0440\u043c\u0430": 6257, "\u2581tarda": 6258, "\u2581\u03c0\u03c1\u03ce\u03c4\u03b1": 6259, "ambul": 6260, "\u2581Entwicklungen": 6261, "\u2581Holding": 6262, "\u2581primeras": 6263, "ografia": 6264, "parte": 6265, "\u2581condemned": 6266, "\u2581hine": 6267, "\u2581cilind": 6268, "\u2581\u043a\u0435\u0440\u0443": 6269, "\u2581\u0446\u044a\u0440": 6270, "\u2581\u0440\u043e\u0437\u0434\u0456": 6271, "\u2581instant": 6272, "\u2581\ub300\ube44": 6273, "\u2581\u092a\u093e\u0930": 6274, "\u0454\u043c": 6275, "biskup": 6276, "Francis": 6277, "Er": 6278, "\u7656": 6279, "koh": 6280, "\u2581defect": 6281, "\u2581\u0644\u0643": 6282, "\u8ee2": 6283, "\u2581\u0645\u062d": 6284, "\u2581\uce7c": 6285, "====": 6286, "\u5404\u9879": 6287, "\u2581bones": 6288, "\u2581Kah": 6289, "\u0445\u043e\u0436\u0434\u0435\u043d\u0438\u0435": 6290, "\u6b6a": 6291, "\u2581\u0431\u0435\u0437\u043f\u0435": 6292, "\u2581\u0441\u0432\u043e\u0439": 6293, "\u2581uplo": 6294, "\u5c0f\u578b": 6295, "\u2581flimkien": 6296, "hden": 6297, "\u2581decir": 6298, "covo": 6299, "\u2581gesla": 6300, "Denis": 6301, "\u2581Innen": 6302, "\u81ea\u884c": 6303, "\u2581rejonie": 6304, "\ub4e4\uacfc": 6305, "\u064a\u0627\u0647": 6306, "\u00e4mpfe": 6307, "\u2581Bands": 6308, "\u2581Proces": 6309, "\u2581Belgi": 6310, "\u2581\ud14c": 6311, "\u2581Ta\u010du": 6312, "vey": 6313, "\u2581vzhled": 6314, "anor": 6315, "\u2581joskus": 6316, "\u2581gick": 6317, "\u2581discurs": 6318, "\uc580": 6319, "\u2581Xer": 6320, "\u2581dom\u00f3w": 6321, "\u0434\u0438\u0442": 6322, "ri\u010d": 6323, "\u2581coth": 6324, "\u2581\u03b4\u03b5\u03af": 6325, "\u2581\u0440\u043e\u0441\u0441\u0438\u0439\u0441\u043a\u043e\u0433\u043e": 6326, "\ud558\ub2e4\uace0": 6327, "\u03b9\u03c3\u03b1\u03bd": 6328, "\u2581basen": 6329, "\u2581\u043b\u0435\u0441\u043d\u043e": 6330, "\u2581Lorenz": 6331, "\u82cd": 6332, "oria": 6333, "\u2581b\u0113r": 6334, "\u2581\u0123imenes": 6335, "\u2581p\u0159es": 6336, "acon": 6337, "\u2581kit\u0105": 6338, "ramento": 6339, "ijeniti": 6340, "\u2581\u0441\u0435\u043d\u0442\u044f\u0431\u0440\u044f": 6341, "\u2581\u043f\u043e\u0442\u0435\u0440\u044f": 6342, "\u2581\u03a7\u03ac": 6343, "\u2581cr\u00edt": 6344, "\u2581visu": 6345, "\u2581\u0438\u0437\u0432\u0435\u0441\u0442\u043d\u044b\u0435": 6346, "\u2581fal": 6347, "\u898f\u6a21": 6348, "aquesta": 6349, "\u2581econ\u00f3mico": 6350, "\u2581h\u00fan": 6351, "\u5ef6\u4f38": 6352, "\u2581voice": 6353, "\u2581heti": 6354, "\u2581actores": 6355, "\u2581Sache": 6356, "\u30fc\u30bf\u30fc": 6357, "\u0430\u0442\u0440\u0430": 6358, "\u2581dykt": 6359, "\u8c34": 6360, "\u7efc\u5408": 6361, "\u2581miel": 6362, "\u2581Str": 6363, "\u0647\u062a\u0645\u0627\u0645": 6364, "ound": 6365, "\u2581sistemi": 6366, "\u2581cl\u00e1sicos": 6367, "small": 6368, "latter": 6369, "nMeer": 6370, "\u2581legendar": 6371, "\u2581main": 6372, "iegi": 6373, "\uc606": 6374, "ljeno": 6375, "richt": 6376, "\u0436\u0434\u0430\u043d\u0435": 6377, "\u2581v\u00fdro": 6378, "\u2581\u0437\u0433\u043e\u0434\u043e\u043c": 6379, "stead": 6380, "\u91cd\u8981\u306a": 6381, "rozum": 6382, "\u2581ocul": 6383, "\u2581gewij": 6384, "\u2581pione": 6385, "\u0442\u0435\u0440\u0430": 6386, "\u70f4": 6387, "\u041e\u0412": 6388, "\u2581\u0432\u0430\u043a": 6389, "\u2581Task": 6390, "ell\u00e4": 6391, "\u2581\u0441\u044a\u0449\u0435\u0441\u0442\u0432\u0443\u0432\u0430": 6392, "\u2581\u03b2\u03bb\u03ad": 6393, "\u00e4hrend": 6394, "\u2581Atualmente": 6395, "icams": 6396, "\u0643\u0645\u0627": 6397, "\u2581Dreh": 6398, "\u2581bhu": 6399, "\u6bad": 6400, "\u2581skozi": 6401, "\u043f\u0440\u043e\u0438\u0437": 6402, "yny": 6403, "\u2581coneix": 6404, "\u2581septic": 6405, "\u4eca\u5e74": 6406, "\u2581\ud504": 6407, "Gy": 6408, "\u015ft\u0131r": 6409, "\u2581\u00dcbers": 6410, "\u2581\u043f\u0440\u0435\u0442\u0435\u043d": 6411, "\u2581rs": 6412, "\u2581\u0437\u0430\u043a\u043b\u044e\u0447\u0430\u0435\u0442\u0441\u044f": 6413, "figuration": 6414, "\u2581Vista": 6415, "\u2581matematik": 6416, "\u2581Nella": 6417, "\u2581tejido": 6418, "\ud4e8\ud130": 6419, "read": 6420, "\u2581\u043a\u043e\u0440\u043e\u043b\u044f": 6421, "izzjonijiet": 6422, "\u2581Northwest": 6423, "\u5b30": 6424, "\u2581rela\u00e7\u00e3o": 6425, "\u041f\u0435\u0442": 6426, "\u0442\u0432\u0435\u0440": 6427, "\u2581ond": 6428, "\u4e5f": 6429, "\u2581werkte": 6430, "rekli": 6431, "\ub98e": 6432, "laying": 6433, "\u2581constituent": 6434, "allery": 6435, "\u2581\u0442\u0440\u043e": 6436, "\u00e1lta": 6437, "\u2581violencia": 6438, "ariamente": 6439, "\u0437\u043e\u0432\u044b\u0439": 6440, "ikal": 6441, "\u2581specificity": 6442, "\u03ad\u03c1\u03b9": 6443, "\u2581membri": 6444, "\u0644\u0627\u0645\u0629": 6445, "iczba": 6446, "\u2581Yale": 6447, "\u03bc\u03b5\u03c2": 6448, "\u2581comerci": 6449, "\u2581dob\u0159e": 6450, "\u2581Edward": 6451, "\u2581metal": 6452, "\u3068\u8a00\u3046": 6453, "\u2581satur": 6454, "icken": 6455, "ayas": 6456, "ilon": 6457, "\u2581priz": 6458, ":#": 6459, "\u2581Glenn": 6460, "\u2581da\u0148": 6461, "\u2581m\u00f5ned": 6462, "\u2581composed": 6463, "\u2581\u0435\u0434\u0438\u043d\u0441\u0442\u0432\u0435": 6464, "\u2581markedet": 6465, "\u2581\u0441\u0435\u0431\u0435": 6466, "scriptsize": 6467, "\u2581yeter": 6468, "bruck": 6469, "\u2581sebe": 6470, "sehen": 6471, "\u788e": 6472, "\u2581napred": 6473, "\u0644\u062a": 6474, "\u2581pirm\u0101": 6475, "\u2581brachten": 6476, "\ud559\uacfc": 6477, "\u3002.": 6478, "\u2581\ubc1b\uc558\ub2e4": 6479, "\u68da": 6480, "\u2581tenden": 6481, "\u2581Fragen": 6482, "\u2581\u043e\u043f\u0443\u0431\u043b\u0438\u043a\u043e": 6483, "ualit\u00e0": 6484, "\u00e1r\u00fa": 6485, "\u2581\u0441\u0442\u0440": 6486, "Office": 6487, "\u80f8": 6488, "\u2581influx": 6489, "\u2581distance": 6490, "ouverneur": 6491, "\u2581b\u00fcy": 6492, "\u2581necesaria": 6493, "\u2581\u043a\u0430\u043a\u0438\u043c": 6494, "\u2581\u0432\u0430\u0441": 6495, "ithe": 6496, "\u2581\u043f\u043e\u043b\u0456": 6497, "\u2581analiza": 6498, "\u2581wszystko": 6499, "\u2581kejs": 6500, "\u2581personalidades": 6501, "fart": 6502, "\u0629": 6503, "\u2581u\u010ditel": 6504, "\u03c3\u03bf": 6505, "\u2581komun": 6506, "\u2581Duke": 6507, "\u2581\u03b1\u03c5\u03c4\u03cc": 6508, "\u6f54": 6509, "\u2581\uac1c\ud601": 6510, "\u2581Dette": 6511, "\u306b\u304a\u3051\u308b": 6512, "\u2581\u041c\u043e\u043b": 6513, "\u2581diret": 6514, "\u2581gydymas": 6515, "\u2581uzsk": 6516, "\u2581telp": 6517, "\u2581\u0421\u043b\u0443": 6518, "\u00e9d\u00e9": 6519, "otipo": 6520, "\u2581\u043a\u0456\u043b\u044c\u043a\u043e": 6521, "\u2581term\u00e9szetes": 6522, "\u2581podemos": 6523, "\u2581reticul": 6524, "Inde": 6525, "\u2581FIN": 6526, "\u8f1b": 6527, "\u2581toestemming": 6528, "\u2581h\u00f8yere": 6529, "\u2581Koninkrijk": 6530, "\u2581\u0456\u0437": 6531, "amon": 6532, "\u2581Antwort": 6533, "\u2581com": 6534, "\u2581\u043d\u0435\u043f\u0440\u0438\u044f\u0442": 6535, "\u8499": 6536, "rino": 6537, "\u2581\u043f\u0440\u043e\u0442\u044f": 6538, "mc": 6539, "jecha": 6540, "\u2581canale": 6541, "\u6d60": 6542, "\u7684\u4f5c\u7528": 6543, "\u0634\u0629": 6544, "vertre": 6545, "\u2581inteligencia": 6546, "\u2581decorated": 6547, "\u2581determinato": 6548, "\u2581Eerste": 6549, "\u2581escala": 6550, "\u2581lipcu": 6551, "\u89c4\u6a21": 6552, "\u2581castel": 6553, "\u2581availability": 6554, "alet": 6555, "\u2581Apple": 6556, "\u2581\u043b\u0438\u0446\u0435": 6557, "\u03bb\u03b1": 6558, "inaa": 6559, "\u2581ledet": 6560, "\u79d8": 6561, "\u2581prefeitura": 6562, "\u2581\u0437\u043d\u0430\u0447\u0435\u043d\u0438\u0435": 6563, "\u2581\u0434\u044a": 6564, "\u2581\u03b1\u03bd\u03c4\u03b1": 6565, "\u2581\u00e9j": 6566, "\u2581Alexand": 6567, "\u2581f\u00fcrs": 6568, "\u2581signaling": 6569, "\u6320": 6570, "\u2581encontraba": 6571, "\u6d47": 6572, "}}_": 6573, "\u2581daardoor": 6574, "\u0924\u094d\u0924": 6575, "\u2581Londen": 6576, "\u2581\u092c\u0932\u094d\u0915\u093f": 6577, "\u2581odb": 6578, "\u2581olivat": 6579, "\u2581verkk": 6580, "\u2581medlem": 6581, "owns": 6582, "\u2581VE": 6583, "\u0642\u0629": 6584, "ile\u00e1in": 6585, "\u2581coment\u00e1rios": 6586, "\u2581\u0441\u0442\u0432\u043e": 6587, "\u7334": 6588, "\u2581kcal": 6589, "\u2581Broadway": 6590, "\u9505": 6591, "\u2581frequency": 6592, "\u2581meci": 6593, "\u2581lire": 6594, "<extra_id_119>": 6595, "zili": 6596, "\u2581Gegend": 6597, "\u2581b\u0127all": 6598, "\u2581leki": 6599, "imais": 6600, "\u2581creator": 6601, "\u0649": 6602, "\u2581Polak": 6603, "\u2581classical": 6604, "itur": 6605, "\u2581\u0907\u0932\u093e": 6606, "\u2581mhu": 6607, "jara": 6608, "\u6292": 6609, "\u2581ess": 6610, "\u2581erect": 6611, "\u2581\ub354\uc6b1": 6612, "\u2581tjedna": 6613, "iped": 6614, "\u2581minor": 6615, "Sub": 6616, "\u2581Police": 6617, "ogr\u00e1ficas": 6618, "\u2581\u0909\u0938\u0915\u0947": 6619, "\u2581line": 6620, "\u2581Noc": 6621, "kriv": 6622, "\u5efa\u7b51": 6623, "\u2581k\u00f6nnt": 6624, "\u0938\u094d\u0924\u093e": 6625, "\u2581v\u00fdhod": 6626, "\u2581spaz": 6627, "\u2581neko": 6628, "\u2581valsts": 6629, "\u2581p\u0101rtikas": 6630, "\u2581\ub9d0\ud588\ub2e4": 6631, "\u2581stopniu": 6632, "\u2581Nell": 6633, "\u2581Jackson": 6634, "\u2581horm": 6635, "\u2581brought": 6636, "\u2581Sebasti\u00e3o": 6637, "\u2581\u043a\u043e\u0440\u043f\u0443\u0441": 6638, "\u2581Appar": 6639, "\u2581istiyor": 6640, "EMI": 6641, "Part": 6642, "\u6280\u8853": 6643, "\u2581klare": 6644, "\u0639\u062f": 6645, "\u2581queremos": 6646, "\u7a7a\u9593": 6647, "\u2581Slovensku": 6648, "\u5237": 6649, "\u0432\u0435\u0442": 6650, "\u2581\u043f\u0440\u043e\u0448\u043b\u043e": 6651, "\u0441\u0442\u0442\u0430": 6652, "\u2581nuolat": 6653, "\u2581\ucc38\uace0": 6654, "\u2581wants": 6655, "a\u00f1os": 6656, "\u0431\u043e\u0440\u0438": 6657, "\u0161nih": 6658, "\u2581telling": 6659, "\u2581meta": 6660, "jsko": 6661, "\u2581jir": 6662, "nKui": 6663, "\u2581\u0141\u0105": 6664, "atal": 6665, "\u2581ell\u00e1t": 6666, "\u2581durfte": 6667, "\u2581vys": 6668, "\u8461\u8404\u7259": 6669, "\u2581fejl\u0151d": 6670, "\u2581brows": 6671, "\u7535\u5b50": 6672, "\u2581explique": 6673, "\u2581\u0417\u0430\u043f\u0430": 6674, "dala": 6675, "renal": 6676, "\u2581Vict": 6677, "\u2581\u0434\u043e\u0441\u044f": 6678, "\u2581muse": 6679, "b\u011b": 6680, "\u2581Bor": 6681, "\u2581r\u00e9cl": 6682, "\u2581soy": 6683, "\u4e0d\u6703": 6684, "\u2581ogran": 6685, "Most": 6686, "keting": 6687, "\u2581adaptar": 6688, "ml": 6689, "\u2581Plano": 6690, "\u8ecd\u4e8b": 6691, "lens": 6692, "\u2581considerada": 6693, "\u2581\u015fart": 6694, "\u2581commitment": 6695, "\uc2b9": 6696, "\u0631\u0627\u062c": 6697, "\u2581Gracias": 6698, "stage": 6699, "live": 6700, "\u2581produrre": 6701, "\u2581repress": 6702, "\u662f\u5426": 6703, "rare": 6704, "\u2581\u0432\u0435\u043d\u0442\u0438": 6705, "\u2581int\u00e9zm\u00e9ny": 6706, "\u2581your": 6707, "geving": 6708, "\u2581UEFA": 6709, "\u2581donde": 6710, "\u66c7": 6711, "le\u017eitosti": 6712, "\u00f3dios": 6713, "ogados": 6714, "ysteem": 6715, "\u2581appar": 6716, "\u6fd2": 6717, "\u2581peas": 6718, "\u2581instala\u00e7\u00e3o": 6719, "\u8a54": 6720, "\u2581ovu": 6721, "Kam": 6722, "\u2581\u0412\u044b\u0441\u043e": 6723, "\u2581charme": 6724, "eket": 6725, "\u704c": 6726, "\u4ef6": 6727, "\u2581dragon": 6728, "\u2581Nollaig": 6729, "\u2581certes": 6730, "\u2581beweging": 6731, "\u2581nowy": 6732, "\u2581nyer": 6733, "\u2581k\u00fcnst": 6734, "\u043d\u0438": 6735, "\u2581jotain": 6736, "\u2581\ubc18\uc751": 6737, "\u2581olur": 6738, "\u2581extern": 6739, "\u2581sure": 6740, "\u2581Ryd": 6741, "\u2581neurons": 6742, "it\u00e4ten": 6743, "instit": 6744, "\u2581\u5927\u53d1\u5f69\u7968": 6745, "yszer": 6746, "\u03b8\u03ad\u03bd": 6747, "\u03c4\u03b1\u03bb": 6748, "Con": 6749, "\u0441\u0442\u0435\u043c\u0430": 6750, "iving": 6751, "\u5270": 6752, "\u2581tierra": 6753, "\u2581\ub85c": 6754, "ative": 6755, "\u76ea": 6756, "\u2581neil": 6757, "\u2581simboli": 6758, "\u2581b\u00e5da": 6759, "\u2581Import": 6760, "\u50f9\u503c": 6761, "\u2581\u0438\u0441\u043a\u043e": 6762, "annah": 6763, "\u2581personnels": 6764, "\u2581lass": 6765, "\u8272\u5f69": 6766, "\u2581\uacc4": 6767, "\u901a\u904e": 6768, "bu": 6769, "imm": 6770, "\u00fcstung": 6771, "\uc600\ub2e4": 6772, "\u2581priemon": 6773, "\u2581zwi\u0105zane": 6774, "\u03c0\u03b1\u03bd": 6775, "\u2581Gd": 6776, "\u2581co\u00fb": 6777, "\u2581l\u00e4b": 6778, "ugen": 6779, "\u2581supprim": 6780, "\u2581\u041f\u0430": 6781, "irane": 6782, "\u2581fotos": 6783, "\u9493": 6784, "\u2581agres": 6785, "\u2581Aden": 6786, "\u0436\u0430\u0432\u0430\u0442": 6787, "\u5589": 6788, "\u2581objek": 6789, "Sum": 6790, "\u2581Produktions": 6791, "\u2581gola": 6792, "desc": 6793, "zyst": 6794, "\u2581bab": 6795, "Westfalen": 6796, "\u2581\u0432\u0435\u0440\u0448\u0438": 6797, "Heb": 6798, "uteen": 6799, "\u2581\u0928\u0939\u0940\u0902": 6800, "\u2581tracking": 6801, "\u2581\u0444\u043e\u0440\u0443\u043c": 6802, "\u064a\u0634": 6803, "\u2581bened": 6804, "\u2581partido": 6805, "\u5c51": 6806, "\u2581activo": 6807, "\u2581VM": 6808, "\u2581bites": 6809, "\u56fd": 6810, "\u2581arquitetura": 6811, "ception": 6812, "\u2581a\u00e7\u0131": 6813, "\u05b9": 6814, "\u2581\u043f\u043e\u0437\u043d\u0430\u043a\u043e\u043c\u0438": 6815, "\u2581efici\u00eancia": 6816, "\u30b3\u30df": 6817, "\u2581\ub2c8": 6818, "\u2581ranks": 6819, "\u0447\u0435\u043a": 6820, "\u2581kirja": 6821, "\u2581major": 6822, "\u2581Bourbon": 6823, "\ud558\uc600\ub2e4": 6824, "\u2581schemat": 6825, "adat": 6826, "zk": 6827, "\u0648\u0646\u0627\u062a": 6828, "\u03bc\u03b5\u03bd\u03b1": 6829, "\u2581bruge": 6830, "\u9ad8\u7d1a": 6831, "\u2581alguien": 6832, "\u2581Strat": 6833, "abeth": 6834, "\u2581hely": 6835, "\u2581regering": 6836, "\u043d\u0435\u0441\u0435\u043d": 6837, "\u2581Birds": 6838, "\u6dea": 6839, "\u2581brands": 6840, "\u2581mettent": 6841, "\u2581altos": 6842, "\u00e7ar": 6843, "\u2581Constit": 6844, "multicol": 6845, "\u2581esim": 6846, "\u2581zwykle": 6847, "\u2581klassen": 6848, "\u2581gradual": 6849, "Invest": 6850, "\u2581sis": 6851, "\u2581Dani": 6852, "\u2581\u03bb\u03ad\u03b5\u03b9": 6853, "^{-": 6854, "\u2581certains": 6855, "\u2581vrucht": 6856, "\u2581\u0404\u0432\u0440\u043e\u043f\u0438": 6857, "\u2581d\u00f6n\u00fc\u015f": 6858, "\u2581varnost": 6859, "n\u0105trz": 6860, "\u2581stellt": 6861, "\u2581dwukrotnie": 6862, "davo": 6863, "\u2581curs": 6864, "fre": 6865, "\u5d14": 6866, "\u2581\u043f\u0440\u0430\u0432\u043b\u0435\u043d\u0438\u044f": 6867, "\u2581ve\u013ek\u00fd": 6868, "\u2581mol\u00e9": 6869, "\u2581Contrib": 6870, "\u2581grafik": 6871, "\u2581Th\u00fcr": 6872, "\u2581kaupp": 6873, "\u2581immunosupp": 6874, "\u2581PK": 6875, "\u03bd\u03bf\u03c2": 6876, "\u2581viacer": 6877, "\u2581mez\u0151": 6878, "\u2581rop": 6879, "\u2581unbek": 6880, "\u2581Vend": 6881, "\u2581\u03bc\u03b9\u03b1\u03c2": 6882, "\u9ecf": 6883, "\u2581investigation": 6884, "\u7826": 6885, "\u2581g\u0142ow\u0119": 6886, "iez": 6887, "\u2581cri": 6888, "\u2581travelled": 6889, "\u2581S\u00e4ngerin": 6890, "\u8209\u884c": 6891, "\u2581feladat": 6892, "\u2581envolv": 6893, "holen": 6894, "\u2581portato": 6895, "ishi": 6896, "\u2581datter": 6897, "\u2581bevis": 6898, "owny": 6899, "ONE": 6900, "\u2581Window": 6901, "burg": 6902, "\u2581\u043f\u0435\u0440\u0432\u044b\u043c": 6903, "eweg": 6904, "ol\u00f3gicos": 6905, "\u0161\u010dina": 6906, "\u2581Primeira": 6907, "hoito": 6908, "\u30da\u30fc\u30b8": 6909, "\u2581jeg": 6910, "\u2581pr\u00edncipe": 6911, "\u2581sicherlich": 6912, "\u2581\u03b8\u03c1\u03b7": 6913, "ve\u010d": 6914, "\u2581\u0441\u0435\u043b\u0456": 6915, "\u2581spine": 6916, "\u2581professionisti": 6917, "\u2581gli": 6918, "\u00e6g": 6919, "\u00f3metro": 6920, "\u6c83": 6921, "\u2581angina": 6922, "\u2581Homem": 6923, "\u2581Seen": 6924, "\u76d4": 6925, "\u2581corris": 6926, "\u2581\u0442\u0440\u0435": 6927, "inum": 6928, "\u0448": 6929, "\u2581stating": 6930, "\u2581\u0926\u0942\u0938\u0930\u0947": 6931, "egnet": 6932, "\u2581m\u00eddia": 6933, "\u0441\u043b\u043e\u0432\u043d\u043e": 6934, "\u2581transportu": 6935, "\u2581Ir\u00e1n": 6936, "\u2581mg": 6937, "\u2581seventh": 6938, "||||||": 6939, "\u2581\u03ad\u03bd": 6940, "\u2581kih": 6941, "kara": 6942, "\u2581Irving": 6943, "\u2581Lebanon": 6944, "ried": 6945, "\u2581da\u011f\u0131": 6946, "\u2581eclips": 6947, "\u2581kapcsol": 6948, "\u00fccken": 6949, "\u2581accett": 6950, "aked": 6951, "\u2581znacznie": 6952, "\u2581\u0939\u0948\u0902": 6953, "\u2581vorba": 6954, "\u2581krit": 6955, "\u2581England": 6956, "\u2581sis\u00e4ll\u00e4": 6957, "\u2581\u043d\u0435\u0431\u043e": 6958, "\u2581sharing": 6959, "\u2581h\u00f8jere": 6960, "\u2581\u0938\u0942\u091a\u0940": 6961, "rowego": 6962, "\u2581\u015brodow": 6963, "\u2581winna": 6964, "uds": 6965, "\u2581\u0938\u094d\u0915\u0942\u0932": 6966, "\u043d\u043e\u0432\u0438": 6967, "\u2581\u0440\u043e\u0437\u0432\u0438": 6968, "\u2581bedrij": 6969, "\u59ae": 6970, "\u2581peru": 6971, "\ub85c\ubc8c": 6972, "\u3092\u884c\u3046": 6973, "\u2581Dan": 6974, "idig": 6975, "\u2581\u0432\u043e\u0441\u043f\u0438\u0442\u0430": 6976, "\u2581\u0441\u043e": 6977, "\u2581kori": 6978, "\u2581Scors": 6979, "\u0410\u043b": 6980, "\u2581Sempre": 6981, "\u2581Els": 6982, "\u2581\u010dervence": 6983, "\u2581prosv": 6984, "\u2581Artikel": 6985, "\u30c8\u30c3\u30d7": 6986, "\u0627\u0644\u064a": 6987, "klady": 6988, "\u2581\u0623\u062e\u0631\u0649": 6989, "\u2581normalt": 6990, "\u2581f\u00e1cilmente": 6991, "\u2581\u043a\u043d\u0438\u0433": 6992, "\u63d0\u4f9b\u4e86": 6993, "jeti": 6994, "\u9e2e": 6995, "\u2581avec": 6996, "\u2581tilgjen": 6997, "\u2581cij": 6998, "ovano": 6999, "\u2581Dei": 7000, "\u2581Jamaica": 7001, "cz": 7002, "\u2581receberam": 7003, "elek": 7004, "\u2581\u043f\u0440\u043e\u0434\u043e\u043b": 7005, "\\\\": 7006, "\u30c6": 7007, "\u2581kandid": 7008, "interpre": 7009, "\u5ec3": 7010, "\u2581offers": 7011, "Ball": 7012, "\u2581tois": 7013, "ajal": 7014, "\u2581einzig": 7015, "\u2581tote": 7016, "\u2581\u0434\u043e\u0441\u0442\u0430\u0432\u043a\u0430": 7017, "\u4ed6\u5728": 7018, "\u2581Hau": 7019, "\u0444\u0435": 7020, "\u2581\u03ba\u03b1\u03c4\u03ac": 7021, "\ub291": 7022, "\u2581ca\u00edda": 7023, "\u2581\u0625\u0644\u0649": 7024, "\u2581interven": 7025, "\u2581dorad": 7026, "\ube75": 7027, "\u2581combine": 7028, "pira": 7029, "\u2581\u092a\u0941\u0938\u094d\u0924": 7030, "\u2581ryb": 7031, "\u2581aler": 7032, "\u2581VHS": 7033, "\u2581\u0625\u0644\u0627": 7034, "\u2581bolj": 7035, "\u2581facteurs": 7036, "\u2581\u043a\u043b\u0430\u0434": 7037, "\u2581nahr": 7038, "\u2581\ud2f0": 7039, "\u9593\u306e": 7040, "\u2581\uba87": 7041, "\u2581\uc9d1": 7042, "\u2581financing": 7043, "\u2581v\u00f5rd": 7044, "ERAL": 7045, "osan": 7046, "\u2581spo\u0142ecze": 7047, "\u043b\u043a\u0435": 7048, "\u2581\u03ba\u03c9": 7049, "EI": 7050, "\u62d2\u7edd": 7051, "redit": 7052, "\u2581neural": 7053, "\u2581Dov": 7054, "uj\u00facich": 7055, "\u2581integraci\u00f3n": 7056, "\u2581gyventoj\u0173": 7057, "\u2581anhand": 7058, "\u2581Tort": 7059, "\u2581\u0441\u043b\u0443": 7060, "\uc9f8": 7061, "rze": 7062, "\u2581vindo": 7063, "\u2581\u0456\u043c": 7064, "\u2581popul\u00e6re": 7065, "\u2581nesre": 7066, "\u010dajne": 7067, "rup": 7068, "}~": 7069, "\u2581elementen": 7070, "\u2581encarg": 7071, "\u2581sp\u0113l\u0113s": 7072, "\u2581n\u00e9gociations": 7073, "\u2581tan": 7074, "\u2581rozhov": 7075, "\u2581Forte": 7076, "\u2581confirming": 7077, "nym": 7078, "\u2581embedding": 7079, "heit": 7080, "\u2581\u0113r": 7081, "\u0431\u043b\u0438\u0437\u0438": 7082, "isci": 7083, "\u2581vloe": 7084, "bold": 7085, "\u043b\u043b\u044e": 7086, "nili": 7087, "kv": 7088, "\u5bc5": 7089, "\u2581\u0432\u0445\u043e\u0434\u0438": 7090, "iana": 7091, "\u2581Abs": 7092, "\u5c18": 7093, "\u2581juven": 7094, "\u2581po\u015bred": 7095, "\ud2b9\ubcc4": 7096, "\u2581attent": 7097, "\u2581\u0441\u0443\u0449\u0435": 7098, "\u00f8rer": 7099, "\ud0ed": 7100, "\u2581\u0436\u0435\u0440": 7101, "\u2581\u0435\u0444\u0435\u043a\u0442\u0438\u0432": 7102, "\u00e6k": 7103, "\u011b\u0159": 7104, "\u2581sepp": 7105, "\u2581in\u00fameras": 7106, "\u2581Lies": 7107, "\u2581synagog": 7108, "mov": 7109, "\u2581z\u00e1kona": 7110, "\u0440\u0430\u0442\u0430": 7111, "\u2581Produkte": 7112, "ovan\u00edm": 7113, "\u2581\u0412\u0430\u043b\u0435": 7114, "???": 7115, "\u0101de": 7116, "\u00e1\u017e": 7117, "\u2581l\u00ec": 7118, "rec": 7119, "\u2581disple": 7120, "\u2581historian": 7121, "\u2581maks": 7122, "\u2581\u0410\u043d\u0434\u0440\u0435": 7123, "\u2581festiv": 7124, "\u2581yhteis": 7125, "\u0117li\u0173": 7126, "\u2581Britannica": 7127, "\u2581donna": 7128, "cule": 7129, "\u2581powi": 7130, "\u2581obdob": 7131, "\u2581Madison": 7132, "\u2581dager": 7133, "\u2581accent": 7134, "\u7a7a": 7135, "\u2581sportowy": 7136, "\u2581\u0411\u043e\u0440": 7137, "\u2581\u0627\u0644\u0634\u0639\u0631": 7138, "\u2581\u043f\u043e\u043d\u0430": 7139, "\u2581ahol": 7140, "\u2581ch\u00fa": 7141, "\u2581sino": 7142, "\u2581eelm": 7143, "das": 7144, "\u00e1k": 7145, "\u2581\u091c\u093e\u0924\u0947": 7146, "\u7af6\u99ac": 7147, "\u2581Soviet": 7148, "\u2581\u043f\u0440\u043e\u0441\u0442\u0440\u0430\u043d\u0441\u0442\u0432\u0430": 7149, "\u2581sphincter": 7150, "\u2581psic": 7151, "innon": 7152, "\u0628\u062a": 7153, "ettive": 7154, "\ud5e4": 7155, "\u0111eni": 7156, "cius": 7157, "\u2581juiste": 7158, "\u2581dieux": 7159, "\u2581sl\u00e4": 7160, "\u2581twierd": 7161, "\u2581\u0431\u043e\u0440\u044c\u0431\u044b": 7162, "\u2581Policy": 7163, "\u2581\u0434\u0456\u0439": 7164, "\u00e1lneho": 7165, "\u2581famiglia": 7166, "\u2581hasta": 7167, "\u5171\u306b": 7168, "\u2581f\u00edsicas": 7169, "\u2581fys": 7170, "\u2581decenni": 7171, "\u0441\u0443": 7172, "ladores": 7173, "arcs": 7174, "\u2581i\u0161la": 7175, "\u0142uga": 7176, "\u2581intervent": 7177, "\u306b\u5bfe\u5fdc": 7178, "\u2581campo": 7179, "\u2581\u043b\u044e\u0431\u043e\u0432": 7180, "\u2581demand": 7181, "\u9739": 7182, "\u0442\u0430\u0442\u044c": 7183, "\u96d5": 7184, "banks": 7185, "\u2581Judith": 7186, "\u2581\ucc2c": 7187, "amorph": 7188, "\u2581ibland": 7189, "\u2581eventuell": 7190, "orze": 7191, "\u2581alkaa": 7192, "yn\u0105": 7193, "\u2581esplor": 7194, "\u0432\u0435\u043d\u043e": 7195, "\u2581desenvolup": 7196, "acak": 7197, "LT": 7198, "\u2581youth": 7199, "\u2581\u0444\u0456\u043d\u0430\u043d": 7200, "\u2581reeks": 7201, "\uc778\uac00": 7202, "\u2581\u010demp": 7203, "\u2581Antoni": 7204, "\u2581\u0426\u0435\u043d\u0442": 7205, "\u2581Abl": 7206, "\u2581HDMI": 7207, "\u978b": 7208, "\u901a\u7528": 7209, "romb": 7210, "\u0447\u0438\u043a": 7211, "\u2581svet": 7212, "c\u00ed": 7213, "\u2581n\u00e5gra": 7214, "\u2581p\u00e9trole": 7215, "\u2581economische": 7216, "\u2581ainsi": 7217, "\u2581\u00f6k": 7218, "\u00e9ria": 7219, "\u5408\u8846\u56fd": 7220, "\u2581monte": 7221, "edik": 7222, "ijska": 7223, "\u2581\u043d\u0430\u0443\u0447\u043d\u043e\u0439": 7224, "ifies": 7225, "<extra_id_128>": 7226, "poon": 7227, "\u2581tidal": 7228, "\u2581Roots": 7229, "\u2581j\u00e4rel": 7230, "\u2581Lola": 7231, "\u2581discussed": 7232, "\u6b7c": 7233, "spar": 7234, "\u0915\u0947": 7235, "\u2581pin": 7236, "antica": 7237, "boy": 7238, "anders": 7239, "\u2581avui": 7240, "\u2581\u015al\u0105ska": 7241, "\u2581\u092e\u093f\u0932": 7242, "\u306b\u3064\u3044\u3066\u306f": 7243, "EO": 7244, "\u2581\u0432\u0430\u0440\u0438\u0430\u043d\u0442": 7245, "tte": 7246, "\u5275\u9020": 7247, "\u2581\u0646\u0648\u0639": 7248, "\u2581Sos": 7249, "zion": 7250, "\u2581plunder": 7251, "\u2581excepcional": 7252, "\u2581\u043c\u0430\u0433\u0430\u0437\u0438\u043d\u0435": 7253, "\u2581Fantas": 7254, "\u2581obbl": 7255, "IRE": 7256, "\u2581dziewczy": 7257, "\u2581\u03c3\u03c7\u03b5\u03b4\u03cc\u03bd": 7258, "k\u00fa": 7259, "\u0441\u043e\u043c\u043e": 7260, "\u2581Amerikaanse": 7261, "\u2581publisher": 7262, "\u2581Imp": 7263, "\u2581sacens": 7264, "zcie": 7265, "\u2581engaging": 7266, "\uc9f1": 7267, "\u2581\u0130l": 7268, "\u2581\uc774\uc6a9": 7269, "\u2581dankzij": 7270, "\u0441\u044c": 7271, "\u2581j\u0119zykiem": 7272, "\u2581rze\u017abi": 7273, "\u2581occident": 7274, "\u2581reciben": 7275, "\u2581twar": 7276, "\u2581\u00e9conomie": 7277, "\u4fa8": 7278, "\u2581logical": 7279, "\u2581leur": 7280, "\u2581pope\u0142": 7281, "\u2581zbog": 7282, "\u2581sill\u00e4": 7283, "unami": 7284, "\u00f3cia": 7285, "\u2581initially": 7286, "v\u011bt": 7287, "ref": 7288, "\u2581Donald": 7289, "\u5451": 7290, "\u2581\u0437\u0430\u044f\u0432\u0438": 7291, "\u0161ta": 7292, "\u2581cine": 7293, "\u2581solu\u00e7\u00e3o": 7294, "\u2581Czy": 7295, "\u2581Mans": 7296, "iforni": 7297, "\u00f2n": 7298, "\u2581Tep": 7299, "\u2581izlases": 7300, "idens": 7301, "wanted": 7302, "\u2581\u00e7\u00f6z\u00fcm": 7303, "\u2581\u0421\u0438\u0431\u0438\u0440\u0438": 7304, "\u2581znis": 7305, "\u2581\u0440\u0456\u0437": 7306, "\u2581allows": 7307, "\u2581seni\u016bnaitija": 7308, "\u2581summon": 7309, "\u2581Rese": 7310, "\u9f63": 7311, "\u2581festeggi": 7312, "\u2581S\u00e4nger": 7313, "\u2581cust": 7314, "\u2581Espa\u00f1": 7315, "\u94ce": 7316, "\uadf8\ub7ec": 7317, "\u2581vyriaus": 7318, "\u2581dam": 7319, "\u03bc\u03bf\u03bd": 7320, "filled": 7321, "\u2581micro": 7322, "\u2581Resources": 7323, "maar": 7324, "inga": 7325, "riebe": 7326, "biot": 7327, "\u2581anta": 7328, "\u2581\u03b2\u03b1\u03c3": 7329, "\u2581biskupa": 7330, "\u2581ocurre": 7331, "\u010dina": 7332, "\u2581axe": 7333, "\u2581\u0438\u043d\u0442\u0435\u0440": 7334, "\u00fcnnak": 7335, "\u2581paplit": 7336, "\u2581genius": 7337, "\u2581ayr": 7338, "\u2581Oltre": 7339, "\u2581MOS": 7340, "\u2581Sanremo": 7341, "\u2581Kova": 7342, "veis": 7343, "\u2581\u043f\u0440\u043e\u0438\u0437\u0432\u043e\u0434\u0441\u0442\u0432\u043e": 7344, "iok": 7345, "\u2581histori": 7346, "owi\u0105": 7347, "\u2581\u092c\u0928\u093e\u090f": 7348, "Hermann": 7349, "<extra_id_152>": 7350, "\u2581CAR": 7351, "\u2581Davy": 7352, "\u2581conducted": 7353, "\u2581SH": 7354, "\u2581soldados": 7355, "\u2581dakt": 7356, "\u2581\u0448\u0432\u0435\u0439": 7357, "\uc785\ub2c8\ub2e4": 7358, "\u2581react": 7359, "\u2581fa\u00e7a": 7360, "i\u00e7\u00e3o": 7361, "\u2581oiri": 7362, "\u54c8\u5c14": 7363, "\u2581Galileo": 7364, "\u2581Nacional": 7365, "\u0641\u064a\u062f": 7366, "\u2581smoking": 7367, "\u2581\u043f\u0440\u0438\u0432\u0435\u043b\u043e": 7368, "|}{": 7369, "\u2581\u0413\u0435\u043d\u0440\u0438": 7370, "\u2581vrouw": 7371, ".": 7372, "\u2581tillbaka": 7373, "\u2581samego": 7374, "\u2581Giro": 7375, "\u2581\u0444\u043e\u043d\u0435": 7376, "\u2581\u0924\u0947\u0932": 7377, "\u2581f\u00fchrten": 7378, "\u2581ru": 7379, "\u2581azi": 7380, "\u4e00\u6761": 7381, "\u0443\u0433\u043e\u043b\u044c": 7382, "\u2581\u0627\u0644\u0645\u062e": 7383, "aleiro": 7384, "waukee": 7385, "\u2581\u539f": 7386, "stenen": 7387, "\u2581dogmat": 7388, "rition": 7389, "\u2581\u0434\u043d\u044f": 7390, "pinal": 7391, "\u2581\u043a\u043b\u0438": 7392, "ehrt": 7393, "ocken": 7394, "\u2581\u043e\u043a\u0440\u0435": 7395, "\u2581\u0441\u044a\u0434\u044a\u0440\u0436\u0430": 7396, "\u2581Afrikan": 7397, "olysis": 7398, "\u51ac": 7399, "\u2581latim": 7400, "\u6b50\u6d32": 7401, "\u2581misi\u00f3n": 7402, "\u0430\u043b": 7403, "\u2581\u00c0": 7404, "\u62a8": 7405, "\u0421\u0420": 7406, "\u2581Group": 7407, "Eu": 7408, "\u2581wkr\u00f3tce": 7409, "\u2581f\u00edor": 7410, "itaar": 7411, "\u672c\u5f53\u306b": 7412, "\u2581suprem": 7413, "\u2581difficulties": 7414, "\u2581p\u00f5hjus": 7415, "\u55ae": 7416, "\u6bd2": 7417, "\u2581lundi": 7418, "\u2581morate": 7419, "\u2581Rama": 7420, "\u2581\u0434\u0443": 7421, "\u606c": 7422, "ELE": 7423, "\uc7ad": 7424, "\u2581Reina": 7425, "\u2581n\u00e1stup": 7426, "\u2581stranu": 7427, "\u2581betyr": 7428, "\u2581acompanh": 7429, "$'": 7430, "\u2581\ud639\uc740": 7431, "\u2581Due": 7432, "\u2581\u0915\u0930\u0928\u093e": 7433, "\u52a0\u5927": 7434, "\u2581durable": 7435, "\u70c2": 7436, "\u2581security": 7437, "\u2581\u00farad": 7438, "\u2581\u041f\u0440\u0430\u0432\u0438": 7439, "estr": 7440, "\u76e3\u7763": 7441, "\u2581Su": 7442, "\u2581eth": 7443, "\u2581atmosf": 7444, "vole": 7445, "\u00e8vre": 7446, "\u2581acquistare": 7447, "\u2581\u092a\u094d\u0930\u0915\u093e\u0936\u093f\u0924": 7448, "\u2581Peng": 7449, "\u2581utvikling": 7450, "\u2581Yar": 7451, "g\u00e5rden": 7452, "Nord": 7453, "\u7e5e": 7454, "\u2581\u2581\u2581\u2581\u2581\u2581": 7455, "\u2581terrest": 7456, "\u2581Atari": 7457, "\u7dab": 7458, "\u2581pe\u0142": 7459, "EMENT": 7460, "\u2581\u0160": 7461, "\u2581\uc2e4\ud5d8": 7462, "\u2581vlak": 7463, "\u2581flytt": 7464, "\u2581\u064a": 7465, "itudine": 7466, "\u0448\u044c": 7467, "\u2581Jefferson": 7468, "\u044a\u044f": 7469, "\u2581Commons": 7470, "\u2581\uc720\uba85\ud55c": 7471, "\u2581palpable": 7472, "\u2581\u03c3\u03c5\u03bc\u03c0": 7473, "atyw": 7474, "\u2581assemb": 7475, "\u2581L": 7476, "\u2581uko\u0144czy\u0142": 7477, "\u3055\u3044": 7478, "\u2581Wach": 7479, "\u2581Hip": 7480, "\u2581capita": 7481, "<0xDC>": 7482, "\u2581svoj": 7483, "twitter": 7484, "\u2581galvenais": 7485, "\u2581aktyv": 7486, "uws": 7487, "oui": 7488, "\u0448\u043a\u043e": 7489, "\u2581Widers": 7490, "FS": 7491, "\u2581\u0905\u0927\u093f\u0915\u093e\u0902\u0936": 7492, "\u2581brasileira": 7493, "\u2581\u00dc": 7494, "\u2640": 7495, "\u2581convex": 7496, "\u2581c\u0103r": 7497, "\u2581weib": 7498, "\u0447\u043e": 7499, "\u2581\u03bf\u03c0\u03bf\u03af\u03b5\u03c2": 7500, "\u03bc\u03b7\u03c3\u03b7": 7501, "\u2581handful": 7502, "\u2581retrouv\u00e9": 7503, "fran": 7504, "\u2581Conse": 7505, "\u2581mother": 7506, "\u2581F\u00e4higkeiten": 7507, "\u2581Wales": 7508, "\u2581\u041a\u0440\u0430\u0441\u043d\u043e\u0439": 7509, "\u2581raket": 7510, "\u2581leeg": 7511, "kelige": 7512, "\u0431\u0430\u043b": 7513, "\u00e4\u00e4nud": 7514, "\u2581Maison": 7515, "\u0437\u0430\u0446\u0456\u0457": 7516, "\u2581\u0439\u043e": 7517, "\u2581\u092a\u093e\u0920": 7518, "\u5b8c\u6210": 7519, "\u0440\u0430\u0445": 7520, "\u2581\u0433\u0440\u0443\u043f\u043f\u0430": 7521, "\u2581k\u00f6n": 7522, "\u2581t\u00eate": 7523, "\u2581\u0432\u043e\u043b\u043e\u0441": 7524, "\u2581\u0434\u0438\u0430\u043b\u0435\u043a": 7525, "\u2581wijze": 7526, "WM": 7527, "\u2581b\u00e1sn\u00edk": 7528, "\u2581conceptual": 7529, "\u2581Gibraltar": 7530, "imhne": 7531, "\u63d0\u6848": 7532, "utive": 7533, "\u2581bestelling": 7534, "\u0631\u064a\u0645": 7535, "\u6247": 7536, "<0x79>": 7537, "\u2581\u0446\u0443": 7538, "\u2581\u092b\u094b\u0928": 7539, "\u2581Pitts": 7540, "\u041d\u0421": 7541, "\u2581razie": 7542, "\u2581religiosa": 7543, "\u2581Rial": 7544, "\u2581\u0905\u092d": 7545, "\u0440\u0456\u043c": 7546, "\u0433\u0443": 7547, "\ub5a0": 7548, "\u2581Things": 7549, "\u2581\u0423\u043a\u0440\u0430\u0438": 7550, "\u2581Gary": 7551, "\u2581Febbraio": 7552, "\u2581lieben": 7553, "\u2581europea": 7554, "\u2581matki": 7555, "\u2581karier": 7556, "\u2581Europeo": 7557, "\u2581\u0440\u0435\u0432\u043e\u043b\u044e\u0446\u0438\u0438": 7558, "it\u00f3w": 7559, "tient": 7560, "fel": 7561, "\u03bc\u03ac\u03c4\u03c9\u03bd": 7562, "ometern": 7563, "\u2581wszystkie": 7564, "\u2581\u0441\u043f\u043e\u0441\u043e\u0431\u043d\u044b": 7565, "\u00e4llig": 7566, "\u2581celui": 7567, "\u2581Grzegorz": 7568, "\u2581compreso": 7569, "\u2581\\,": 7570, "\u2581iste": 7571, "\u2581Not\u00edcias": 7572, "\u2581Friends": 7573, "\u2581podr\u00e1s": 7574, "nava": 7575, "\u2581MED": 7576, "\u2581\u0938\u094d\u0924\u0930": 7577, "\u2581Sanat": 7578, "quial": 7579, "\u2581linnas": 7580, "\u0441\u043a\u043e\u043c": 7581, "\u957f": 7582, "\u2581\u041f\u0440\u043e\u0442\u0435": 7583, "\u2581compilation": 7584, "\u2581Brod": 7585, "\u2581Fahrer": 7586, "\u8003\u3048\u3066": 7587, "\u2581\u03b1\u03c0\u03bf\u03c4\u03b5\u03bb\u03b5\u03af": 7588, "\u0442\u0443\u0432\u0430\u043d\u043d\u044f": 7589, "\u2581\u03c5\u03c0\u03bf\u03c7": 7590, "\u2581employees": 7591, "\u2581prad\u017ei\u0173": 7592, "patient": 7593, "\u2581dol": 7594, "gehen": 7595, "\u2581\u0440\u0430\u0437\u0431\u0438\u0440\u0430": 7596, "heel": 7597, "\u2581poloh": 7598, "\u7e3e": 7599, "\u2581grie": 7600, "iles": 7601, "\u2581lenguas": 7602, "\u03cc\u03bd": 7603, "\u2581legt\u00f6bb": 7604, "\u2581\u0411\u0438\u0431\u043b\u0438": 7605, "\u2581elanik": 7606, "\u2581commandement": 7607, "\u2581jezu": 7608, "\u634f": 7609, "emus": 7610, "\u2581korist": 7611, "\u2581\u0643\u0646\u062a": 7612, "\u2581u\u017etik": 7613, "\u2581anderer": 7614, "\u2581construct": 7615, "\u009d": 7616, "\u4e0d\u4e45": 7617, "\u2581urat": 7618, "\u2581Turkl\u0101t": 7619, "\u2581veilig": 7620, "\u2581\u0411\u0440\u0438\u0442\u0430": 7621, "\u2581support": 7622, "archive": 7623, "huile": 7624, "\u0447\u0430\u0441\u0442": 7625, "\u2581regra": 7626, "\u2581Arg": 7627, "\u2581Patr": 7628, "\u2581hogyan": 7629, "\u2581L\u00f5una": 7630, "\u2581ihre": 7631, "\u2581Studios": 7632, "\u2581\u0391\u03c1": 7633, "Sidenote": 7634, "\u00e1lny": 7635, "\u0449\u0438": 7636, "\u2581sesto": 7637, "\u2581C\u00e9": 7638, "aul": 7639, "\u2581\u043a\u043d\u044f": 7640, "\u2581inqu": 7641, "\u2581magn\u00e9": 7642, "\u2581kullan\u0131m": 7643, "Ces": 7644, "\u2581insc": 7645, "utti": 7646, "\u2581pidi": 7647, "illeadh": 7648, "wander": 7649, "ruf": 7650, "\u2581\u03c0\u03b5\u03c1\u03af": 7651, "learning": 7652, "\u2581\u0391\u03c0\u03cc": 7653, "artig": 7654, "\u2581comentario": 7655, "\u2581\u0430\u043f\u0440\u0438\u043b": 7656, "\u2581dz\u012bvo": 7657, "\u03c3\u03c4\u03ae\u03c2": 7658, "\u2581punkti": 7659, "\u00edochta\u00ed": 7660, "\u2581cent\u00edmetros": 7661, "\u2581warst": 7662, "\u2581lije\u010diti": 7663, "\u2581Mussolini": 7664, "\u2581junta": 7665, "nJo": 7666, "\u2581Preu\u00dfen": 7667, "\u2581Beijing": 7668, "\u0631\u062a": 7669, "\u2581P\u0159": 7670, "\u2581toep": 7671, "\u9669": 7672, "\u30fc\u30b9": 7673, "\u0670": 7674, "\u2581rozg": 7675, "\u2581constantly": 7676, "\u2581eind": 7677, "inhos": 7678, "Palazzo": 7679, "hof": 7680, "cit": 7681, "\u2581pr\u0119d": 7682, "\u7a7a\u95f4": 7683, "ywat": 7684, "\u2581Mint": 7685, "\u2581Pand": 7686, "olen": 7687, "\u2581gevang": 7688, "\u092f\u0928": 7689, "\u2581lid\u00e9": 7690, "\u2581wyn": 7691, "isesta": 7692, "\ubb8c": 7693, "cho": 7694, "\u2581Dai": 7695, "\u2581davran": 7696, "\u2581kr\u00f3l": 7697, "Quer": 7698, "\u2581levin": 7699, "\u2581exhibited": 7700, "\u2581Match": 7701, "\u2581los": 7702, "\u2581Agri": 7703, "\u2581niczym": 7704, "\u2581registro": 7705, "\u2581presente": 7706, "\u2581erald": 7707, "\u00fcber": 7708, "\u8b9a": 7709, "\u2581fim": 7710, "\u2581younger": 7711, "\u2581mity": 7712, "\u2581income": 7713, "<0x04>": 7714, "\u2581agora": 7715, "\u2581Shelley": 7716, "\u2581\u0388": 7717, "\u2581disturbed": 7718, "\u2581existent": 7719, "\u2581aikana": 7720, "\u5404\u79cd": 7721, "\u2581tilante": 7722, "\u2581\uc601\ud1a0": 7723, "\u2581zijde": 7724, "izzazione": 7725, "\u2581charakteryz": 7726, "\u2581get\u00f6tet": 7727, "\u2581Odpowied": 7728, "\u00e9tranger": 7729, "\u2581Unternehmens": 7730, "\u2581Azul": 7731, "\u2581areng": 7732, "\u2581\u043c\u0438\u043b\u0438\u043e\u043d\u0430": 7733, "\u2581marques": 7734, "\u62a5\u544a": 7735, "\u2581Rund": 7736, "\u2581prow": 7737, "\u2581Messi": 7738, "\u2581zacz\u0119\u0142a": 7739, "\u2581onor": 7740, "\u2581\u043f\u0440\u0435\u0434\u0441\u0442\u0430\u0432\u0438": 7741, "iften": 7742, "\u2581geval": 7743, "\u2581swallowing": 7744, "\ub8fb": 7745, "\u2581\u043f\u044f\u0442\u044c": 7746, "\u2581\u043f\u0440\u0438\u0433\u043e": 7747, "\u03b4\u03ce\u03bd": 7748, "\u2581goods": 7749, "\u2581\u043f\u0430\u0442\u0440\u0438": 7750, "\u2581voters": 7751, "~{\\": 7752, "\u4f1a\u5458": 7753, "\u2581cyclic": 7754, "\u6cbc": 7755, "blick": 7756, "quant": 7757, "\u2581\u043f\u0438\u0448\u0435\u0442": 7758, "\u2581conditional": 7759, "\u2581konu": 7760, "\u2581neuro": 7761, "\u5e0c\u81d8": 7762, "\u2581durata": 7763, "\u2581rendszer": 7764, "\u2581otwar": 7765, "\u0648\u0629": 7766, "\u017eka": 7767, "Video": 7768, "\u7889": 7769, "\u2581Einer": 7770, "\u2581\u0935\u093f\u0915\u0938\u093f\u0924": 7771, "\u6854": 7772, "\u043b\u0435\u043a\u0441\u0430": 7773, "quem": 7774, "\u2581sv\u00e9": 7775, "\u2581jednostki": 7776, "rents": 7777, "\u2581cuestion": 7778, "\u2581\u0441\u0442\u0435\u0440": 7779, "\u2581Konstant": 7780, "<extra_id_38>": 7781, "\u2581\u0430\u043d\u0442\u0438": 7782, "\u2581\u0443\u0434\u043e\u0431": 7783, "isatie": 7784, "\uc801": 7785, "\u2581Philosophie": 7786, "\u2581najwi\u0119ksz\u0105": 7787, "\u2581Vars": 7788, "usu": 7789, "\u75be\u75c5": 7790, "\u2581gepr\u00e4gt": 7791, "auts": 7792, "\u2581surrender": 7793, "lise": 7794, "\u2581donne": 7795, "\u2581\u043e\u043f\u0440\u0430\u0432": 7796, "\u2581cities": 7797, "ziplin": 7798, "\u2581adjacent": 7799, "\u2581\u0435\u0442\u0430": 7800, "\u2581ocasiones": 7801, "\u2581pace": 7802, "inaires": 7803, "\u2581Reus": 7804, "\u00e1lez": 7805, "\u2581j\u0119zyku": 7806, "\u2581eur\u00f3p": 7807, "\u2581acknowledged": 7808, "\u2581\u0392\u03bf\u03c5": 7809, "\u2581bhar": 7810, "\u77f3\u6cb9": 7811, "\u2581\u03b5\u03be\u03c9": 7812, "\u2581kelet": 7813, "\u2581charg\u00e9": 7814, "\u2581Pos": 7815, "\u8907": 7816, "\u2581oberen": 7817, "yd\u00e4": 7818, "\u0441\u0432\u044f": 7819, "\u2581st\u00e1t": 7820, "\uc778\uc758": 7821, "\u043d\u044f\u0442\u044c": 7822, "\u72e0": 7823, "\u2581rim": 7824, "\u2581troon": 7825, "\u2581\u00fazem\u00ed": 7826, "\u00eat": 7827, "\u2581\u0627\u0644\u0639\u0631\u0628\u064a": 7828, "\u2581neprav": 7829, "itari": 7830, "\u2581dvije": 7831, "\u0113t": 7832, "\u767c\u751f": 7833, "\u2581\u064a\u0628\u062f\u0648": 7834, "\u2581organised": 7835, "\u2581voluntary": 7836, "\u2581Ka\u017c": 7837, "\u2581\u0441\u0442\u0430\u0442\u044c\u0438": 7838, "\u2581Scottish": 7839, "\u2581Bourgogne": 7840, "\u2581att\u012bst\u012bbas": 7841, "iesi\u0105": 7842, "<0x9E>": 7843, "\u2581\u0631\u064a": 7844, "\u2581\u03b5\u03af": 7845, "\u2581suburb": 7846, "\u2581nacht": 7847, "\u2581pervers": 7848, "\u2581plat": 7849, "\u2581verurteilt": 7850, "\uc694": 7851, "ype": 7852, "\u2581Tenn": 7853, "\u2581coordination": 7854, "\u2581dotted": 7855, "\u2581\u0441\u043e\u0437\u0434\u0430": 7856, "\u2581Cah": 7857, "\u2581\ubaa8\uc2b5\uc744": 7858, "\u2581m\u011bsta": 7859, "\u2581Korpus": 7860, "\u03cc\u03bc\u03b5\u03bd\u03bf": 7861, "\u0627\u0647": 7862, "\u2581egz": 7863, "\u2581Brie": 7864, "\u2581odbor": 7865, "\u2581\u092a\u0924\u094d\u0930": 7866, "\u0442\u0440\u0435\u0442\u044c": 7867, "\u2581firmly": 7868, "\u2581\u0639\u0647\u062f": 7869, "\u306b\u5bfe\u3057\u3066": 7870, "\u2581Meg": 7871, "\u2581folklore": 7872, "\u2581\ud544\uc694": 7873, "\u2581andererseits": 7874, "ussi": 7875, "\u2581elektron": 7876, "\u0902\u0938": 7877, "\u2581primordial": 7878, "\u2581tuberculosis": 7879, "\u2581Hunt": 7880, "\u3084\u306f": 7881, "utional": 7882, "ieger": 7883, "\u2581peque": 7884, "\u2581benen": 7885, "\u2581enerji": 7886, "geon": 7887, "safe": 7888, "\u2581fumetti": 7889, "\u091a\u093e\u0930\u094d\u092f": 7890, "ensta": 7891, "\u2581marble": 7892, "\u2581ordens": 7893, "\u044d\u0444": 7894, "\u2581vigtigt": 7895, "\u2581\u0628\u062d\u064a\u062b": 7896, "forderung": 7897, "room": 7898, "\u2581Cyber": 7899, "isteanna": 7900, "\u6d59": 7901, "\u2581napad": 7902, "\u2581Economic": 7903, "\u8fba": 7904, "\uc7c8": 7905, "style": 7906, "\u2581\u0932\u093f\u092f\u0947": 7907, "\u2581doute": 7908, "\u2581aandelen": 7909, "\u2581jne": 7910, "ragte": 7911, "\u2581\u0627\u0644\u062a\u062c\u0627\u0631\u064a\u0629": 7912, "\u2581suor": 7913, "\u2581corrup": 7914, "\u2581\u041f\u0456\u0432\u043d\u0456": 7915, "\u2581\uc704\uce58": 7916, "\u2581\u0433\u0440\u0443\u043f\u0430\u0442\u0430": 7917, "\u2581There": 7918, "niejsze": 7919, "\u2581Vargas": 7920, "\u2581Carpenter": 7921, "\u2581ranges": 7922, "\u043c\u043e\u0442\u043e": 7923, "aine": 7924, "\u2581\uae30\uac04": 7925, "\u2581consideradas": 7926, "\u2581\u0430\u0442\u043e": 7927, "\u2581graphic": 7928, "onden": 7929, "\u2581\u0434\u043e\u043b\u043b\u0430\u0440\u043e\u0432": 7930, "\uc6a9": 7931, "uts": 7932, "olato": 7933, "\u2581toinen": 7934, "\u2581karde": 7935, "\u2581\u0456": 7936, "\u2581neug": 7937, "\u043b\u043e\u0439": 7938, "\u2581\uae30\ub150": 7939, "\u2581t\u0101d": 7940, "Low": 7941, "\u2581\u0444\u0440\u043e\u043d": 7942, "\u2581taxas": 7943, "\u2581pig": 7944, "\u9605": 7945, "\",\"": 7946, "uut": 7947, "\u2581\u043f\u0440\u043e\u0446\u0435\u0434\u0443\u0440\u044b": 7948, "\u2581D\u00edky": 7949, "\u00eaque": 7950, "\u015b": 7951, "\u0924\u094d\u092f": 7952, "\u0442\u043e\u043d": 7953, "\u2581verantwort": 7954, "\u2581montagnes": 7955, "\u2581magazine": 7956, "\u2581\uac00\ub974": 7957, "itherto": 7958, "\ucc3e": 7959, "\u2581\u0441\u0432\u043e\u0431\u043e\u0434\u043d\u043e": 7960, "\u2581\u0448\u0438\u0440\u043e": 7961, "\u2581divisione": 7962, "\u2581setting": 7963, "\u043f\u043e\u0441\u0442\u0430": 7964, "\u2581arrives": 7965, "habi": 7966, "\u2581\u0939\u093f\u0928\u094d\u0926": 7967, "\u00e1lis": 7968, "\u30bf\u30a4\u30c8\u30eb": 7969, "\u781d": 7970, "\u2581\uc218\uc815": 7971, "\u2581norte": 7972, "\u9154": 7973, "\u2581appe": 7974, "ullen": 7975, "\u2581partijen": 7976, "\u2581Byron": 7977, "\u2581galite": 7978, "\u2581myel": 7979, "\u043b\u043e\u0433\u043e": 7980, "\u2581voluto": 7981, "\u2581dertig": 7982, "\u2581Wies": 7983, "\u2581\u043d\u0435\u0437\u0430\u0432\u0438\u0441\u0438\u043c\u043e": 7984, "\u91e3": 7985, "\u305d\u308c\u305e\u308c": 7986, "\u2581\u0627\u0644\u0645\u062c\u062a\u0645\u0639": 7987, "\u2581cle": 7988, "\u0441\u0456\u0431": 7989, "\u2581etkili": 7990, "\u2581libres": 7991, "\u65bd\u5de5": 7992, "\u2581semic": 7993, "\u2581\u0410\u043d\u043d\u0430": 7994, "hospital": 7995, "\u2581vije": 7996, "\u2581determines": 7997, "\u2581crypto": 7998, "\u2581izpild": 7999, "\u2581\u043a\u043c\u0435\u0442": 8000, "\u2581blivit": 8001, "\u30af\u30ea\u30fc": 8002, "\u2581lagt": 8003, "\u2581Mc": 8004, "\u77e3": 8005, "MNRAS": 8006, "\u2581reng": 8007, "\u2581minut": 8008, "\uc138": 8009, "p\u0113c": 8010, "Alfred": 8011, "\u2581uts": 8012, "\u2581invasion": 8013, "\u2581esprit": 8014, "\u2581powod\u00f3w": 8015, "\u2581\u0434\u043e\u043b\u0438": 8016, "ik\u00f6": 8017, "hmad": 8018, "\u2581Saddam": 8019, "\u627f\u62c5": 8020, "\u2581\u041a\u0430\u043b\u0438": 8021, "leveland": 8022, "\uae4c\uc694": 8023, "\u2581Boot": 8024, "uerite": 8025, "\u2581\u0441\u043e\u0432\u0435\u0442\u0441\u043a\u0438\u0445": 8026, "\u2581Zak": 8027, "ci\u0105\u017c": 8028, "zczeg\u00f3l": 8029, "\u2581atsir": 8030, "\u2581connect": 8031, "okone": 8032, "tl": 8033, "\u0440\u0435\u043d\u043d\u044f": 8034, "\u2581contava": 8035, "\u2581l\u00f8n": 8036, "\u2581\u041b\u0430": 8037, "\u2581igjen": 8038, "\u2581\u0431\u0440\u043e\u043d": 8039, "gekehrt": 8040, "wij": 8041, "\u2581\u0142\u00f3\u017c": 8042, "\u2581therm": 8043, "\u0440\u044f\u0434\u043e\u043a": 8044, "\u2581fantasma": 8045, "\u2581ensuite": 8046, "\u2581maat": 8047, "placement": 8048, "ogr\u00e1fico": 8049, "\u2581indicators": 8050, "brain": 8051, "\u00e1r\u00f3": 8052, "\u2581necesitan": 8053, "\u2581krie": 8054, "\u2581Isab": 8055, "\u2581leap": 8056, "\u2581\u03c0\u03b7\u03b3": 8057, "\u758a": 8058, "\u2581Yhdysval": 8059, "\u2581izjem": 8060, "\u2581nomes": 8061, "\u2581profundas": 8062, "\u2581poslov": 8063, "\u2581finit": 8064, "ost\u00ed": 8065, "\u4e4e": 8066, "\u2581suficient": 8067, "\u03c0\u03bb\u03bf": 8068, "\u2581Satur": 8069, "\u7a69": 8070, "\u4f70": 8071, "\u2581\u043f\u0438\u0441\u0430\u0442\u044c": 8072, "\u2581yap\u0131": 8073, "\u60b6": 8074, "\u2581minas": 8075, "\ud558\uc2ed\uc2dc\uc624": 8076, "\u2581perfil": 8077, "\u064a\u062a": 8078, "\u2581Kod": 8079, "isuus": 8080, "\u2581ziar": 8081, "\u2581\u0938\u092e\u091d": 8082, "\u2581venda": 8083, "rays": 8084, "\u2581bezoekers": 8085, "\u2581\u0935\u093f\u0915": 8086, "\u2581rev": 8087, "\u2581sa\u011flar": 8088, "ovno": 8089, "\u2581ulkoma": 8090, "ardz": 8091, "<extra_id_17>": 8092, "\u012bv": 8093, "\u2581vpra": 8094, "\u2581\u0433\u043e\u043b\u0435\u043c\u0438": 8095, "\u2581\u043f\u0435\u0447\u0435\u043d\u0438": 8096, "\u2581V\u0161et": 8097, "\u2581recess": 8098, "endeels": 8099, "\u2581JAV": 8100, "\u2581verf\u00fcgbar": 8101, "rocardi": 8102, "\u2581Frig": 8103, "\u0633\u064a": 8104, "\u2581\u0386": 8105, "\u2581lign": 8106, "\u2581\u0628\u0627\u062a": 8107, "ortage": 8108, "_-": 8109, "\u2581po\u017cycz": 8110, "\u2581gromad": 8111, "\u9647": 8112, "\u0441\u0442\u0440\u0438": 8113, "\u2581\u0441\u043f\u043b\u0430": 8114, "\u2581Kval": 8115, "\u2581fratern": 8116, "\u2581Rapid": 8117, "gav": 8118, "middel": 8119, "aturas": 8120, "\ud338": 8121, "\u2581beskriver": 8122, "\u7372": 8123, "\u2581appuntamento": 8124, "\u2581zanie": 8125, "\u2581Athena": 8126, "\u2581comezou": 8127, "\u2581regola": 8128, "Io": 8129, "\u2581\u0627\u0644\u0639": 8130, "ekte": 8131, "\u2581Brux": 8132, "\u2581beelden": 8133, "\u5e87": 8134, "\u2581\u091c\u0948": 8135, "\u8511": 8136, "\u2581comprobar": 8137, "\u2581chapitre": 8138, "hatnak": 8139, "\u2581sottop": 8140, "\u7cfb\u7edf": 8141, "\u2581mechanics": 8142, "\u2581kontra": 8143, "\u092c\u0940": 8144, "\u2581perceber": 8145, "Mil": 8146, "onnement": 8147, "<0xBD>": 8148, "estar": 8149, "\u2581Brigade": 8150, "\u00f6ch": 8151, "\u2581Framework": 8152, "\u2581\u30d1": 8153, "\u0441\u0441\u0435\u0440": 8154, "\u2581Chat": 8155, "\u2581kien": 8156, "\u2581teslim": 8157, "\u2581zullen": 8158, "bestuur": 8159, "\u2581zabezpe": 8160, "\u2581k\u00f5rge": 8161, "\u2581presbyt": 8162, "ALL": 8163, "\u2581\u0161il": 8164, "\u2581\u03c0\u03b1\u03c1\u03ac\u03b4\u03b5\u03b9\u03b3\u03bc\u03b1": 8165, "\u2581\u0422\u0443": 8166, "netje": 8167, "\u2581\u03c3\u03c5\u03bd": 8168, "\u2581Transform": 8169, "\u2581Rech": 8170, "\u00e4rke": 8171, "\u0119d": 8172, "\u2581\u03b1\u03c0\u03b5": 8173, "\u0964\u0964": 8174, "\u2581\uc218\ub3c4": 8175, "\u2581released": 8176, "\u2581scala": 8177, "\u2581siek": 8178, "\u2581R\u00fa": 8179, "\u2581internetowych": 8180, "\u529b": 8181, "\u2581surgimento": 8182, "atorie": 8183, "\u2581\u03b1\u03bd\u03c4\u03b9\u03ba": 8184, "\u2581\u0648\u0627\u0644\u0625": 8185, "\u9913": 8186, "Europe": 8187, "\u2581Luf": 8188, "\u2581prol": 8189, "\u0667": 8190, "\u2581kadar": 8191, "\u2581studiu": 8192, "ljati": 8193, "\u2581\u0441\u0435\u0440\u0432\u0438": 8194, "strijd": 8195, "\u2581campaign": 8196, "ciami": 8197, "\u2581woh": 8198, "w\u00e4r": 8199, "\u03bc\u03b2\u03c1\u03b9\u03bf": 8200, "pound": 8201, "\u2581dou\u0103": 8202, "\u2581rock": 8203, "sub": 8204, "\u2581attir": 8205, "\u641c": 8206, "\u2581voces": 8207, "\u2581tans": 8208, "fell": 8209, "\u2581draaien": 8210, "redu": 8211, "\u0639\u0629": 8212, "%\u3001": 8213, "\u2581d\u00e9cada": 8214, "\u70bd": 8215, "dao": 8216, "\u2581monarch": 8217, "\u2581\u0427\u0438\u0442\u0430\u0442\u044c": 8218, "\u2581Zdrav": 8219, "\u2581jazyk": 8220, "Marc": 8221, "\u99ed": 8222, "\u2581presenting": 8223, "\u2581b\u00edonn": 8224, "cone": 8225, "\u2581pakalpojumu": 8226, "\u52e4": 8227, "\u2581vena": 8228, "\u2581Labs": 8229, "\u2581Bah\u00e1": 8230, "\u8471": 8231, "illaan": 8232, "\u2581selben": 8233, "\u2581redund": 8234, "zepam": 8235, "\u2503": 8236, "\u2581HE": 8237, "ochet": 8238, "\u2581Pedagog": 8239, "\u2581tras": 8240, "\u2581Sao": 8241, "\u2581bil": 8242, "\u2581b\u00e2": 8243, "\u2581Este": 8244, "\u2581Ria": 8245, "\u2581ligament": 8246, "\u0432\u0448\u0438": 8247, "bergh": 8248, "\u2581esineb": 8249, "\u5305": 8250, "\u2581kapital": 8251, "\u2581cadrul": 8252, "anesi": 8253, "\u043a\u0440\u0435": 8254, "\u00edr\u00e1": 8255, "\u30c6\u30fc": 8256, "vej": 8257, "\u2581\u0440\u0440": 8258, "\u2581potr": 8259, "ulaires": 8260, "\u2581atbalsta": 8261, "\u2581biling": 8262, "\u2581miesto": 8263, "\u2581Pine": 8264, "\u2581verdes": 8265, "\u2581r\u00edos": 8266, "agonal": 8267, "\u2581Automobil": 8268, "\u2581Verfassung": 8269, "\u2581\u0161vent": 8270, "\"(": 8271, "\u2581ieguld": 8272, "\u2581englische": 8273, "\u2581Arch\u00e4": 8274, "\u2581sz\u00fcletett": 8275, "\u2581\u0916": 8276, "ipa": 8277, "\u6c38": 8278, "ycznych": 8279, "\u2581cope": 8280, "\u2581slim\u012bbas": 8281, "Als": 8282, "\u2581combust": 8283, "\u2581kvad": 8284, "je\u0161": 8285, "\u2581wyna": 8286, "continu": 8287, "\u2581\u044d\u043a\u0441\u043f\u0435\u0440": 8288, "\u2581tareas": 8289, "\ucfc4": 8290, "\u2581Argument": 8291, "\u2581affres": 8292, "\u2581ench": 8293, "\u2581\u0645\u062c\u0645\u0648\u0639\u0629": 8294, "\u2581t\u0159eba": 8295, "\u684c": 8296, "\u2581natychmiast": 8297, "velocity": 8298, "\u2581ned\u0113\u013cas": 8299, "\u2581pr\u00f3b": 8300, "\u2581obisk": 8301, "\u2581trim": 8302, "\u2581\u0645\u0646\u0647\u0645": 8303, "\u2581Christian": 8304, "\u2581\u043c\u0430\u0442\u0435\u0440\u0438\u0430\u043b\u044b": 8305, "\u2581gen\u00e9tica": 8306, "ophrenia": 8307, "\u2581f\u00fcr": 8308, "\u03b4\u03c9\u03bd": 8309, "\u0924\u0947": 8310, "ign\u00e9": 8311, "\u2581\u0627\u0644\u0623\u0641": 8312, "stru": 8313, "\u5e79\u7dda": 8314, "\u2581\u00e9lev\u00e9": 8315, "an\u00e7a": 8316, "\u2581\u017euv": 8317, "\u0447\u0443\u043a": 8318, "\u2581poll": 8319, "\u2581kaut": 8320, "\u2581doda\u0107": 8321, "\u2581\u0437\u0430\u0432\u044a\u0440": 8322, "\u2581\u0430\u0432\u0442\u043e\u0440\u0438\u0442\u0435": 8323, "\u2581Proto": 8324, "\u0915\u0932": 8325, "\u2581Thoms": 8326, "\u0915\u094b\u0902": 8327, "really": 8328, "imd": 8329, "\u0127ab": 8330, "genwoord": 8331, "\u2581prekyba": 8332, "\u4e1c\u5317": 8333, "bile": 8334, "edale": 8335, "ellement": 8336, "\u2581Econom\u00eda": 8337, "\u2581lon": 8338, "\u5e7f\u897f": 8339, "\u2581kr\u00e1": 8340, "\u6210\u7e3e": 8341, "\u2581mhaith": 8342, "\u2581\u0646\u0637\u0627\u0642": 8343, "\u2581Kingston": 8344, "\u2581\u00e7al\u0131\u015fan": 8345, "\u00fctze": 8346, "\u2581ansvar": 8347, "\u2581\u043f\u0440\u0438\u043d\u0438\u043c\u0430\u0435\u0442": 8348, "\u00e1nak": 8349, "\u00e9li": 8350, "\u2581ansiosta": 8351, "\u0420\u0435\u0439\u0442\u0438\u043d\u0433": 8352, "\u0121\u0121i": 8353, "\u2581\u043e\u0431\u0443\u0447\u0435\u043d\u0438\u044f": 8354, "\u2581s\u0142u\u017cb": 8355, "\u7522\u54c1": 8356, "\u2581inform\u00e1tica": 8357, "\u0413\u0410": 8358, "\u0628": 8359, "\u2581kleineren": 8360, "exception": 8361, "\u30ed\u30fc\u30de": 8362, "attom": 8363, "\u2581Vakar\u0173": 8364, "\u2581dan\u00e7a": 8365, "\u2581\u0627\u0644\u0633\u0643\u0627\u0646": 8366, "yst": 8367, "\u2581po\u0159\u00e1d": 8368, "\u2581procedimento": 8369, "\u2581ve\u0161": 8370, "\u2581pand": 8371, "\u2581Valentin": 8372, "\u2581informazione": 8373, "\u2581\ub118": 8374, "nahme": 8375, "\u2581mintegy": 8376, "\u6210\u90fd": 8377, "\u2581cuyos": 8378, "\u2581beds": 8379, "\u2581Theorem": 8380, "\u2581colpa": 8381, "\u2581B\u00f6ylece": 8382, "\u03c7\u03bf\u03c5\u03c2": 8383, "orex": 8384, "\u2581po": 8385, "\u00e7iler": 8386, "\ub3d4": 8387, "\u2581puisque": 8388, "\u0936\u0940": 8389, "\u2581\u03bc\u03b7\u03c7\u03b1\u03bd": 8390, "\u2581najv\u00e4\u010d": 8391, "\u2581web": 8392, "ickej": 8393, "\u0415": 8394, "\u2581pierw": 8395, "\u0448\u0435\u043d\u0438\u044e": 8396, "\u2581Stuart": 8397, "\u2581rosyj": 8398, "\u2581hobby": 8399, "\u2581strange": 8400, "\u2581kindlasti": 8401, "\u2581funci\u00f3n": 8402, "\u2581Chev": 8403, "\u2581thoracic": 8404, "\u787c": 8405, "\u2581szcze": 8406, "\u092c\u0932": 8407, "\u043d\u0438\u0446\u044f": 8408, "\u2581Turks": 8409, "edaan": 8410, "\u2581restaurante": 8411, "\u2581Sega": 8412, "ivit": 8413, "\u2581zasi\u0119g": 8414, "aid": 8415, "\u2581beda": 8416, "\u2581unserer": 8417, "communic": 8418, "\u2581kr\u00e1s": 8419, "\u2581\u0130yi": 8420, "\ub044": 8421, "furt": 8422, "\u2581Charlie": 8423, "\u0103m\u00e2nt": 8424, "\u2581ware": 8425, "\u2581\u043f\u043e\u0448\u0438": 8426, "irea": 8427, "\u2581Qi": 8428, "broken": 8429, "\u2581ksi\u0119cia": 8430, "nIk": 8431, "\u2581Lange": 8432, "\u03b1\u03bd\u03b1": 8433, "zew": 8434, "\u2581t\u0101": 8435, "\u042e": 8436, "\u2581sc": 8437, "enseit": 8438, "commun": 8439, "\u2581miet": 8440, "\u2581\u0443\u0447\u0438\u043b\u0438\u0449\u0435": 8441, "edad": 8442, "<0xAC>": 8443, "\u2581Thatcher": 8444, "\u2581kol": 8445, "\u2581paks": 8446, "\uce75": 8447, "\u5495": 8448, "iava": 8449, "\u2581\u043d\u0430\u0441\u0447\u0438\u0442\u044b": 8450, "\u9ea6": 8451, "\u2581\u0410\u0432\u0441\u0442\u0440\u0430": 8452, "\u2581chacune": 8453, "\u2581Kamera": 8454, "\u03cc\u03c4\u03b5\u03c1\u03b1": 8455, "\u2581\u0441\u0440\u0435\u0434\u0441\u0442\u0432": 8456, "\u30c3\u30b7\u30e5": 8457, "ikum": 8458, "\u2581\u00fcks": 8459, "\ub9cc\uc774": 8460, "anda": 8461, "haar": 8462, "\u6700": 8463, "\u2581racconto": 8464, "\u2581advers": 8465, "\u2581maskin": 8466, "\u00fcglich": 8467, "\u2581\u0432\u0435\u0440": 8468, "u\u015f": 8469, "\u2581particolare": 8470, "\ub79c\ub4dc": 8471, "\u2581heavier": 8472, "\u2581\u0440\u0430\u0441\u0441\u0442\u043e\u044f": 8473, "wiad": 8474, "\u2581oppon": 8475, "\u00e5rig": 8476, "veren": 8477, "\u00f4nica": 8478, "\u2581gaire": 8479, "\u2581prije": 8480, "\u2581m\u016b": 8481, "ni\u017c": 8482, "\u00fajo": 8483, "\u2581\u0905\u0932": 8484, "\u2581usmer": 8485, "etime": 8486,
[...]
